{
  "version": "1.0",
  "truncation": null,
  "padding": null,
  "added_tokens": [
    {
      "id": 0,
      "content": "<unk>",
      "single_word": false,
      "lstrip": false,
      "rstrip": false,
      "normalized": false,
      "special": true
    },
    {
      "id": 1,
      "content": "<pad>",
      "single_word": false,
      "lstrip": false,
      "rstrip": false,
      "normalized": false,
      "special": true
    },
    {
      "id": 2,
      "content": "<bos>",
      "single_word": false,
      "lstrip": false,
      "rstrip": false,
      "normalized": false,
      "special": true
    },
    {
      "id": 3,
      "content": "<eos>",
      "single_word": false,
      "lstrip": false,
      "rstrip": false,
      "normalized": false,
      "special": true
    }
  ],
  "normalizer": null,
  "pre_tokenizer": {
    "type": "ByteLevel",
    "add_prefix_space": true,
    "trim_offsets": true,
    "use_regex": true
  },
  "post_processor": null,
  "decoder": {
    "type": "ByteLevel",
    "add_prefix_space": true,
    "trim_offsets": true,
    "use_regex": true
  },
  "model": {
    "type": "BPE",
    "dropout": null,
    "unk_token": "<unk>",
    "continuing_subword_prefix": null,
    "end_of_word_suffix": null,
    "fuse_unk": false,
    "byte_fallback": false,
    "ignore_merges": false,
    "vocab": {
      "<unk>": 0,
      "<pad>": 1,
      "<bos>": 2,
      "<eos>": 3,
      "!": 4,
      "\"": 5,
      "#": 6,
      "$": 7,
      "%": 8,
      "&": 9,
      "'": 10,
      "(": 11,
      ")": 12,
      "*": 13,
      "+": 14,
      ",": 15,
      "-": 16,
      ".": 17,
      "/": 18,
      "0": 19,
      "1": 20,
      "2": 21,
      "3": 22,
      "4": 23,
      "5": 24,
      "6": 25,
      "7": 26,
      "8": 27,
      "9": 28,
      ":": 29,
      ";": 30,
      "<": 31,
      "=": 32,
      ">": 33,
      "?": 34,
      "@": 35,
      "A": 36,
      "B": 37,
      "C": 38,
      "D": 39,
      "E": 40,
      "F": 41,
      "G": 42,
      "H": 43,
      "I": 44,
      "J": 45,
      "K": 46,
      "L": 47,
      "M": 48,
      "N": 49,
      "O": 50,
      "P": 51,
      "Q": 52,
      "R": 53,
      "S": 54,
      "T": 55,
      "U": 56,
      "V": 57,
      "W": 58,
      "X": 59,
      "Y": 60,
      "Z": 61,
      "[": 62,
      "\\": 63,
      "]": 64,
      "^": 65,
      "_": 66,
      "`": 67,
      "a": 68,
      "b": 69,
      "c": 70,
      "d": 71,
      "e": 72,
      "f": 73,
      "g": 74,
      "h": 75,
      "i": 76,
      "j": 77,
      "k": 78,
      "l": 79,
      "m": 80,
      "n": 81,
      "o": 82,
      "p": 83,
      "q": 84,
      "r": 85,
      "s": 86,
      "t": 87,
      "u": 88,
      "v": 89,
      "w": 90,
      "x": 91,
      "y": 92,
      "z": 93,
      "|": 94,
      "}": 95,
      "~": 96,
      "¡": 97,
      "¢": 98,
      "£": 99,
      "¤": 100,
      "¥": 101,
      "¦": 102,
      "§": 103,
      "¨": 104,
      "©": 105,
      "ª": 106,
      "«": 107,
      "¬": 108,
      "®": 109,
      "¯": 110,
      "°": 111,
      "±": 112,
      "²": 113,
      "³": 114,
      "´": 115,
      "µ": 116,
      "¶": 117,
      "·": 118,
      "¸": 119,
      "¹": 120,
      "º": 121,
      "»": 122,
      "¼": 123,
      "½": 124,
      "¾": 125,
      "¿": 126,
      "Â": 127,
      "Ã": 128,
      "Ä": 129,
      "Å": 130,
      "Æ": 131,
      "Ç": 132,
      "È": 133,
      "É": 134,
      "Ê": 135,
      "Ë": 136,
      "Ì": 137,
      "Í": 138,
      "Î": 139,
      "Ï": 140,
      "Ð": 141,
      "Ñ": 142,
      "Ò": 143,
      "Ó": 144,
      "Ô": 145,
      "Õ": 146,
      "Ö": 147,
      "×": 148,
      "Ø": 149,
      "Ù": 150,
      "Ú": 151,
      "Û": 152,
      "Ü": 153,
      "Ý": 154,
      "Þ": 155,
      "ß": 156,
      "à": 157,
      "á": 158,
      "â": 159,
      "ã": 160,
      "ä": 161,
      "å": 162,
      "æ": 163,
      "ç": 164,
      "è": 165,
      "é": 166,
      "ê": 167,
      "ë": 168,
      "ì": 169,
      "í": 170,
      "ï": 171,
      "ð": 172,
      "ó": 173,
      "ĉ": 174,
      "Ċ": 175,
      "Ġ": 176,
      "Ģ": 177,
      "ģ": 178,
      "Ĥ": 179,
      "ĥ": 180,
      "Ħ": 181,
      "ħ": 182,
      "Ĩ": 183,
      "ĩ": 184,
      "Ī": 185,
      "ī": 186,
      "Ĭ": 187,
      "ĭ": 188,
      "Į": 189,
      "į": 190,
      "İ": 191,
      "ı": 192,
      "Ĳ": 193,
      "ĳ": 194,
      "Ĵ": 195,
      "ĵ": 196,
      "Ķ": 197,
      "ķ": 198,
      "ĸ": 199,
      "Ĺ": 200,
      "ĺ": 201,
      "Ļ": 202,
      "ļ": 203,
      "Ľ": 204,
      "ľ": 205,
      "Ŀ": 206,
      "ŀ": 207,
      "Ł": 208,
      "ł": 209,
      "Ń": 210,
      "Ġt": 211,
      "Ġa": 212,
      "he": 213,
      "in": 214,
      "re": 215,
      "Ġthe": 216,
      "on": 217,
      "er": 218,
      "Ġo": 219,
      "at": 220,
      "Ġs": 221,
      "en": 222,
      "Ġc": 223,
      "Ġw": 224,
      "es": 225,
      "is": 226,
      "nd": 227,
      "it": 228,
      "or": 229,
      "Ġp": 230,
      "al": 231,
      "Ġb": 232,
      "ed": 233,
      "an": 234,
      "Ġof": 235,
      "Ġf": 236,
      "ing": 237,
      "Ġin": 238,
      "ou": 239,
      "ar": 240,
      "Ġm": 241,
      "Ġand": 242,
      "Ġto": 243,
      "ic": 244,
      "Ġd": 245,
      "ion": 246,
      "le": 247,
      "ro": 248,
      "as": 249,
      "Ġh": 250,
      "ent": 251,
      "Ġth": 252,
      "ct": 253,
      "Ġe": 254,
      "il": 255,
      "Ġre": 256,
      "om": 257,
      "ve": 258,
      "Ġl": 259,
      "st": 260,
      "Ġn": 261,
      "ly": 262,
      "âĢ": 263,
      "Ġbe": 264,
      "Ġis": 265,
      "ĠT": 266,
      "se": 267,
      "ol": 268,
      "Ġg": 269,
      "ation": 270,
      "im": 271,
      "id": 272,
      "et": 273,
      "ut": 274,
      "ce": 275,
      "ot": 276,
      "ur": 277,
      "ra": 278,
      "ow": 279,
      "ch": 280,
      "ĠA": 281,
      "Ġfor": 282,
      "ig": 283,
      "Ġu": 284,
      "ĠS": 285,
      "Ġthat": 286,
      "Ġon": 287,
      "Ġst": 288,
      "ver": 289,
      "Ġy": 290,
      "ĠI": 291,
      "ĠC": 292,
      "ir": 293,
      "ul": 294,
      "ay": 295,
      "am": 296,
      "Ġas": 297,
      "ith": 298,
      "el": 299,
      "ad": 300,
      "Ġpro": 301,
      "her": 302,
      "Ġare": 303,
      "Ġcon": 304,
      "Ġan": 305,
      "Ġwith": 306,
      "if": 307,
      "Ġyou": 308,
      "Ġwh": 309,
      "Ġit": 310,
      "Ġor": 311,
      "Ġal": 312,
      "ter": 313,
      "od": 314,
      "ĠThe": 315,
      "ĠM": 316,
      "Ġ(": 317,
      "ment": 318,
      "ge": 319,
      "ĠP": 320,
      "th": 321,
      "Ġ1": 322,
      "op": 323,
      "ate": 324,
      "ist": 325,
      "ers": 326,
      "Ġde": 327,
      "ill": 328,
      "Ġhe": 329,
      "ies": 330,
      "ess": 331,
      "ab": 332,
      "ĠB": 333,
      "Ġex": 334,
      "Ġsu": 335,
      "Ġwe": 336,
      "âĢĻ": 337,
      "ore": 338,
      "ect": 339,
      "Ġcom": 340,
      "us": 341,
      "ity": 342,
      "est": 343,
      "Ġha": 344,
      "res": 345,
      "ac": 346,
      "ive": 347,
      "ĠH": 348,
      "ld": 349,
      "um": 350,
      "rom": 351,
      "os": 352,
      "Ġv": 353,
      "ke": 354,
      "Ġby": 355,
      "ant": 356,
      "em": 357,
      "ĠW": 358,
      "qu": 359,
      "iv": 360,
      "ain": 361,
      "nt": 362,
      "Ġat": 363,
      "pp": 364,
      "igh": 365,
      "ĠD": 366,
      "Ġcan": 367,
      "Ġwas": 368,
      "ud": 369,
      "ĠE": 370,
      "Ġfrom": 371,
      "Ġch": 372,
      "and": 373,
      "oc": 374,
      "Ġr": 375,
      "ort": 376,
      "ĠR": 377,
      "Ġne": 378,
      "ĠF": 379,
      "Ġse": 380,
      "ial": 381,
      "ure": 382,
      "Ġ2": 383,
      "ĠâĢ": 384,
      "Ġnot": 385,
      "un": 386,
      "Ġle": 387,
      "art": 388,
      "ical": 389,
      "ĠG": 390,
      "ĠN": 391,
      "Ġhave": 392,
      "ri": 393,
      "ĠL": 394,
      "og": 395,
      "Ġsh": 396,
      "Ġen": 397,
      "Ġsp": 398,
      "Ġthis": 399,
      "Ġab": 400,
      "ight": 401,
      "pt": 402,
      "Ġwor": 403,
      "rou": 404,
      "ich": 405,
      "red": 406,
      "all": 407,
      "ould": 408,
      "ther": 409,
      "ost": 410,
      "ions": 411,
      "gh": 412,
      "ome": 413,
      "00": 414,
      "our": 415,
      "du": 416,
      "Ġim": 417,
      "ated": 418,
      "The": 419,
      "Ġus": 420,
      "ine": 421,
      "per": 422,
      "Ġpl": 423,
      "out": 424,
      "ag": 425,
      "ard": 426,
      "Ġtheir": 427,
      "ide": 428,
      "act": 429,
      "ell": 430,
      "ff": 431,
      "ĠO": 432,
      "Ġint": 433,
      "pl": 434,
      "ans": 435,
      "ear": 436,
      "ast": 437,
      "age": 438,
      "ak": 439,
      "ust": 440,
      "Ġyour": 441,
      "Ġwhich": 442,
      "Ġk": 443,
      "Ġwhe": 444,
      "Ġthey": 445,
      "ĠJ": 446,
      "ec": 447,
      "ous": 448,
      "iz": 449,
      "ĠU": 450,
      "ood": 451,
      "Ġall": 452,
      "ult": 453,
      "Ġad": 454,
      "ĠIn": 455,
      "Ġwill": 456,
      "ib": 457,
      "Ġcont": 458,
      "end": 459,
      "Ġinc": 460,
      "cc": 461,
      "ru": 462,
      "Ġdis": 463,
      "Ġmore": 464,
      "Ġcomp": 465,
      "âĢĿ": 466,
      "ap": 467,
      "ong": 468,
      "Ġres": 469,
      "ip": 470,
      "vel": 471,
      "ew": 472,
      "ations": 473,
      "ia": 474,
      "Ġhas": 475,
      "ere": 476,
      "so": 477,
      "Ġdo": 478,
      "orm": 479,
      "ary": 480,
      "ater": 481,
      "ĠTh": 482,
      "able": 483,
      "are": 484,
      "ence": 485,
      "ild": 486,
      "Ġman": 487,
      "Ġcl": 488,
      "Ġother": 489,
      "ual": 490,
      "ks": 491,
      "Ġbut": 492,
      "Ġwere": 493,
      "ry": 494,
      "ind": 495,
      "ep": 496,
      "ĠâĢľ": 497,
      "Ġte": 498,
      "ents": 499,
      "Ġper": 500,
      "Ġimp": 501,
      "ach": 502,
      "Ġme": 503,
      "Ġone": 504,
      "Ġalso": 505,
      "ance": 506,
      "ose": 507,
      "reat": 508,
      "ake": 509,
      "ign": 510,
      "'s": 511,
      "ress": 512,
      "ass": 513,
      "ase": 514,
      "au": 515,
      "av": 516,
      "Ġso": 517,
      "Ġ19": 518,
      "Ġj": 519,
      "ction": 520,
      "ition": 521,
      "Ġout": 522,
      "ice": 523,
      "one": 524,
      "Ġun": 525,
      "ime": 526,
      "very": 527,
      "Ġar": 528,
      "Ġapp": 529,
      "ber": 530,
      "Ġabout": 531,
      "Ġpart": 532,
      "ord": 533,
      "Ġstud": 534,
      "ace": 535,
      "Ġev": 536,
      "ory": 537,
      "ens": 538,
      "ok": 539,
      "ount": 540,
      "ĠSt": 541,
      "ame": 542,
      "Ġwho": 543,
      "ire": 544,
      "ish": 545,
      "ack": 546,
      "Ġpe": 547,
      "Ġinf": 548,
      ").": 549,
      "Ġhis": 550,
      "Ġthem": 551,
      "Ġcomm": 552,
      "Ġsy": 553,
      "ors": 554,
      "ue": 555,
      "ub": 556,
      "ite": 557,
      "Ġsc": 558,
      "ike": 559,
      "ang": 560,
      "ces": 561,
      "ĠK": 562,
      "ound": 563,
      "now": 564,
      "ree": 565,
      "ĠIt": 566,
      "low": 567,
      "Ġbec": 568,
      "Ġpre": 569,
      "olog": 570,
      "Ġup": 571,
      "Ġmay": 572,
      "ric": 573,
      "ie": 574,
      "Ġthan": 575,
      "Ġ\"": 576,
      "Ġqu": 577,
      "iff": 578,
      "ile": 579,
      "ople": 580,
      "Ġsome": 581,
      "Ġyear": 582,
      "ays": 583,
      "Ġrec": 584,
      "ĠCh": 585,
      "Ġwhen": 586,
      "ail": 587,
      "Ġbeen": 588,
      "Ġthere": 589,
      "ates": 590,
      "ings": 591,
      "nder": 592,
      "ian": 593,
      "mer": 594,
      "Ġits": 595,
      "ough": 596,
      "Ġinto": 597,
      "Ġgo": 598,
      "ren": 599,
      "ĠThis": 600,
      "Ġag": 601,
      "Ġtime": 602,
      "Ġtra": 603,
      "Ġwork": 604,
      "Ġover": 605,
      "rit": 606,
      "ph": 607,
      "Ġ20": 608,
      "Ġthese": 609,
      "erv": 610,
      "Ġdiff": 611,
      "Ġpeople": 612,
      "te": 613,
      "vers": 614,
      "Ġhow": 615,
      "ally": 616,
      "ons": 617,
      "ĠV": 618,
      "rough": 619,
      "ause": 620,
      "Ġro": 621,
      "lud": 622,
      "Ġcons": 623,
      "Ġuse": 624,
      "ond": 625,
      "Ġcol": 626,
      "Ġra": 627,
      "Ġour": 628,
      "Ġhad": 629,
      "Ġtr": 630,
      "ms": 631,
      "ll": 632,
      "ific": 633,
      "Ġ3": 634,
      "ove": 635,
      "tern": 636,
      "Ġbet": 637,
      "Ġact": 638,
      "Ġmost": 639,
      "we": 640,
      "Ġlike": 641,
      "int": 642,
      "Ġknow": 643,
      "alth": 644,
      "ities": 645,
      "irst": 646,
      "Ġunder": 647,
      "ys": 648,
      "ĠY": 649,
      "ments": 650,
      "lic": 651,
      "Ġbl": 652,
      "Ġwould": 653,
      "Ġsa": 654,
      "row": 655,
      "ject": 656,
      "ning": 657,
      "ious": 658,
      "Ġdes": 659,
      "Ġacc": 660,
      "lect": 661,
      "ook": 662,
      "les": 663,
      "velop": 664,
      "Ġneed": 665,
      "Ġnew": 666,
      "Ġsuch": 667,
      "stem": 668,
      "Ġtw": 669,
      "Ġrel": 670,
      "Ġif": 671,
      "ffect": 672,
      "Ġrep": 673,
      "Ġany": 674,
      "Ġhel": 675,
      "Ġchild": 676,
      "ient": 677,
      "Ġgen": 678,
      "Ġinclud": 679,
      "ob": 680,
      "ational": 681,
      "cess": 682,
      "ple": 683,
      "ative": 684,
      "Ġwhat": 685,
      "Ġhelp": 686,
      "hed": 687,
      "ular": 688,
      "Ġused": 689,
      "Ġpr": 690,
      "yp": 691,
      "Ġonly": 692,
      "ced": 693,
      "Ġprodu": 694,
      "Ġph": 695,
      "ating": 696,
      "ool": 697,
      "Ġno": 698,
      "Ġprov": 699,
      "Ġmany": 700,
      "Ġind": 701,
      "ov": 702,
      "Ġam": 703,
      "Ġdevelop": 704,
      "Ġoff": 705,
      "Ġfirst": 706,
      "Ġfe": 707,
      "Ġthrough": 708,
      "Ġspec": 709,
      "),": 710,
      "ĠUn": 711,
      "fter": 712,
      "ath": 713,
      "oss": 714,
      "round": 715,
      "Ġac": 716,
      "ise": 717,
      "ark": 718,
      "Ġreg": 719,
      "uc": 720,
      "Ġpo": 721,
      "Ġem": 722,
      "ics": 723,
      "Ġexp": 724,
      "Ġdi": 725,
      "ful": 726,
      "uring": 727,
      "eth": 728,
      "ts": 729,
      "ne": 730,
      "Ġtwo": 731,
      "rib": 732,
      "Ġdiffere": 733,
      "erm": 734,
      "ink": 735,
      "Ġsystem": 736,
      "oth": 737,
      "hen": 738,
      "iss": 739,
      "rop": 740,
      "old": 741,
      "Ġob": 742,
      "als": 743,
      "ility": 744,
      "Ġdec": 745,
      "ible": 746,
      "Ġass": 747,
      "Ġatt": 748,
      "Ġadd": 749,
      "ased": 750,
      "ĠâĢĵ": 751,
      "ten": 752,
      "Ġsur": 753,
      "ange": 754,
      "Ġshould": 755,
      "ife": 756,
      "ĠHe": 757,
      "Ġ-": 758,
      "ower": 759,
      "ures": 760,
      "fore": 761,
      "Ġwell": 762,
      "ble": 763,
      "ert": 764,
      "arch": 765,
      "ween": 766,
      "ract": 767,
      "Ġwater": 768,
      "ng": 769,
      "Ġrem": 770,
      "ram": 771,
      "aw": 772,
      "Ġsupp": 773,
      "Ġfl": 774,
      "Ġ201": 775,
      "Ġyears": 776,
      "Ġsub": 777,
      "own": 778,
      "Ġinv": 779,
      "Ġco": 780,
      "sel": 781,
      "Ġhealth": 782,
      "ade": 783,
      "In": 784,
      "gan": 785,
      "ied": 786,
      "Ġsm": 787,
      "Ġbetween": 788,
      "Ġcould": 789,
      "Ġ4": 790,
      "ution": 791,
      "hes": 792,
      "cy": 793,
      "Ġpres": 794,
      "Ġhigh": 795,
      "its": 796,
      "Ġwhere": 797,
      "ick": 798,
      "Ġ200": 799,
      "ever": 800,
      "ily": 801,
      "wn": 802,
      "Ġmake": 803,
      "Ġtrans": 804,
      "uch": 805,
      "Ġget": 806,
      "ĠAs": 807,
      "xt": 808,
      "ants": 809,
      "Ġbu": 810,
      "Ġher": 811,
      "Ġpers": 812,
      "Ġ5": 813,
      "Ġimport": 814,
      "form": 815,
      "chool": 816,
      "ience": 817,
      "ology": 818,
      "chn": 819,
      "ural": 820,
      "ident": 821,
      "Ġear": 822,
      "Ġrese": 823,
      "Ġinter": 824,
      "ting": 825,
      "Ġform": 826,
      "ited": 827,
      "Ġinst": 828,
      "Ġmod": 829,
      "meric": 830,
      "Ġnum": 831,
      "Ġpol": 832,
      "oci": 833,
      "Ġdisc": 834,
      "Ġexam": 835,
      "ines": 836,
      "land": 837,
      "ins": 838,
      "Ġdifferent": 839,
      "Ġlear": 840,
      "ont": 841,
      "ef": 842,
      "Ġfound": 843,
      "Ġbecause": 844,
      "hat": 845,
      "ists": 846,
      "ness": 847,
      "ata": 848,
      "ict": 849,
      "ually": 850,
      "Ġsim": 851,
      "Ġafter": 852,
      "Ġlong": 853,
      "Ġexper": 854,
      "Ġthen": 855,
      "Ġcar": 856,
      "Ġworld": 857,
      "Ġeffect": 858,
      "gy": 859,
      "Ġeven": 860,
      "Ġlar": 861,
      "Ġvery": 862,
      "Ġjust": 863,
      "Ġway": 864,
      "ft": 865,
      "cept": 866,
      "Ġcent": 867,
      "Ġmed": 868,
      "ism": 869,
      "Ġinform": 870,
      "ature": 871,
      "Ġincre": 872,
      "oy": 873,
      "Ġed": 874,
      "Ġdet": 875,
      "Ġtyp": 876,
      "Ġcount": 877,
      "urn": 878,
      "other": 879,
      "Ġhum": 880,
      "aking": 881,
      "get": 882,
      "Ġsee": 883,
      "Ġresp": 884,
      "ĠAmeric": 885,
      "ically": 886,
      "Ġsign": 887,
      "vent": 888,
      "Ġ18": 889,
      "ives": 890,
      "ety": 891,
      "Ġthose": 892,
      "Ġref": 893,
      "Ġke": 894,
      "Ġvar": 895,
      "Ġgener": 896,
      "ollow": 897,
      "ivers": 898,
      "ck": 899,
      "iew": 900,
      "Ġprog": 901,
      "Ġpat": 902,
      "Ġevery": 903,
      "Ġext": 904,
      "arm": 905,
      "cer": 906,
      "Ġfact": 907,
      "Ġcall": 908,
      "ros": 909,
      "Ġpub": 910,
      "Ġprocess": 911,
      "Ġresult": 912,
      "Ġbeing": 913,
      "Ġchildren": 914,
      "omm": 915,
      "Ġsaid": 916,
      "ps": 917,
      "Ġeach": 918,
      "ues": 919,
      "ases": 920,
      "led": 921,
      "ds": 922,
      "Ġgra": 923,
      "Ġsec": 924,
      "Ġloc": 925,
      "Ġca": 926,
      "Ġrequ": 927,
      "..": 928,
      "tle": 929,
      "iron": 930,
      "ages": 931,
      "Ġimportant": 932,
      "ruct": 933,
      ".âĢĿ": 934,
      "ork": 935,
      "Ġlife": 936,
      "ĠWe": 937,
      "ĠAl": 938,
      "Ġpartic": 939,
      "Ġtechn": 940,
      "ody": 941,
      "Ġcommun": 942,
      "Ġset": 943,
      "Ġdist": 944,
      "Ġmuch": 945,
      "Ġmon": 946,
      "Ġart": 947,
      "Ġmy": 948,
      "ather": 949,
      "Ġcre": 950,
      "Ġshe": 951,
      "Ġdep": 952,
      "Ġfam": 953,
      "Ġent": 954,
      "Ġdef": 955,
      "Ġduring": 956,
      "Ġstudents": 957,
      "Ġown": 958,
      "ved": 959,
      "Ġinformation": 960,
      "Ġread": 961,
      "vern": 962,
      "ized": 963,
      "Ġfollow": 964,
      "imes": 965,
      "ĠThey": 966,
      "cent": 967,
      "Th": 968,
      "ward": 969,
      "Ġsk": 970,
      "ĠPro": 971,
      "Ġfood": 972,
      "ices": 973,
      "Ġlead": 974,
      "Ġlevel": 975,
      "Ġright": 976,
      "Ġaut": 977,
      "ĠRe": 978,
      "Ġsame": 979,
      "Ġmade": 980,
      "gg": 981,
      "Ġdoes": 982,
      "ize": 983,
      "any": 984,
      "Ġgrow": 985,
      "Ġproble": 986,
      "Ġstudy": 987,
      "ĠIf": 988,
      "Ġfind": 989,
      "ection": 990,
      "Ġdata": 991,
      "Ġperson": 992,
      "hip": 993,
      "Ġ6": 994,
      "Ġgood": 995,
      "Ġcur": 996,
      "Ġav": 997,
      "ĠAn": 998,
      "Ġback": 999,
      "ted": 1000,
      "Ġend": 1001,
      "the": 1002,
      "Ġschool": 1003,
      "Ġboth": 1004,
      "Ġstr": 1005,
      "Ġins": 1006,
      "Ġmin": 1007,
      "onom": 1008,
      "ale": 1009,
      "ĠFor": 1010,
      "Ġche": 1011,
      "und": 1012,
      "ality": 1013,
      "Ġusing": 1014,
      "ĠHow": 1015,
      "Ġbefore": 1016,
      "Ġpop": 1017,
      "Ġgrou": 1018,
      "viron": 1019,
      "Ġshow": 1020,
      ".,": 1021,
      "io": 1022,
      "Ġcomple": 1023,
      "ĠAr": 1024,
      "Ġexpl": 1025,
      "stand": 1026,
      "Ġsmall": 1027,
      "Ġhist": 1028,
      "read": 1029,
      "Ġcor": 1030,
      "19": 1031,
      "ock": 1032,
      "ially": 1033,
      "Ġtest": 1034,
      "ivid": 1035,
      "Ġgl": 1036,
      "iel": 1037,
      "Ġmain": 1038,
      "Ġagain": 1039,
      "ince": 1040,
      "Ġtreat": 1041,
      "Ġoften": 1042,
      "20": 1043,
      "omen": 1044,
      "Ġbo": 1045,
      "ined": 1046,
      "inal": 1047,
      "Ġval": 1048,
      "ty": 1049,
      "Ġsol": 1050,
      "ĠInd": 1051,
      "Ġless": 1052,
      "||": 1053,
      "ars": 1054,
      "Ġprot": 1055,
      "Ġbr": 1056,
      "der": 1057,
      "Ġwhile": 1058,
      "nce": 1059,
      "ergy": 1060,
      "Ġposs": 1061,
      "ix": 1062,
      "imate": 1063,
      "ex": 1064,
      "rol": 1065,
      "Ġtake": 1066,
      "Ġday": 1067,
      "000": 1068,
      "Ġlit": 1069,
      "ien": 1070,
      "ished": 1071,
      "Ġdise": 1072,
      "ĠSp": 1073,
      "ute": 1074,
      "Ġstate": 1075,
      "ax": 1076,
      "Ġnow": 1077,
      "Ġserv": 1078,
      "akes": 1079,
      "ĠNew": 1080,
      "Ġhim": 1081,
      "Ġocc": 1082,
      "Ġpower": 1083,
      "Ġnumber": 1084,
      "Ġmem": 1085,
      "Ġec": 1086,
      "ral": 1087,
      "ier": 1088,
      "oh": 1089,
      "Ġris": 1090,
      "Ġfun": 1091,
      "dition": 1092,
      "vironment": 1093,
      "Ġresearch": 1094,
      "Ġvis": 1095,
      "Ġorgan": 1096,
      "irect": 1097,
      "Ġprovid": 1098,
      "ĠSc": 1099,
      "ulation": 1100,
      "Ġactiv": 1101,
      "Ġdesign": 1102,
      "Ġbody": 1103,
      "Ġ10": 1104,
      "Ġhuman": 1105,
      "Ġchar": 1106,
      "Ġclass": 1107,
      "ury": 1108,
      "iving": 1109,
      "Ġhand": 1110,
      "Ġbel": 1111,
      "iqu": 1112,
      "Ġaround": 1113,
      "up": 1114,
      "ves": 1115,
      "air": 1116,
      "Ġcell": 1117,
      "ered": 1118,
      "Ġdown": 1119,
      "Ġsupport": 1120,
      "Ġthree": 1121,
      "Ġredu": 1122,
      "Ġmust": 1123,
      "iversity": 1124,
      "Ġcommon": 1125,
      "ah": 1126,
      "ters": 1127,
      "Ġlook": 1128,
      "ocial": 1129,
      "ven": 1130,
      "ger": 1131,
      "Ġstart": 1132,
      "ital": 1133,
      "hers": 1134,
      "uss": 1135,
      "ave": 1136,
      "Ġconf": 1137,
      "Ġest": 1138,
      "Ġgreat": 1139,
      "ium": 1140,
      "Ġpoint": 1141,
      "Ġcle": 1142,
      "day": 1143,
      "aj": 1144,
      "Ġplan": 1145,
      "Ġ7": 1146,
      "rent": 1147,
      "Ġdid": 1148,
      "ving": 1149,
      "ĠBut": 1150,
      "Ġgovern": 1151,
      "ains": 1152,
      "âĢĶ": 1153,
      "Ġelect": 1154,
      "Ġser": 1155,
      "Ġexample": 1156,
      "ĠYou": 1157,
      "Ġlarge": 1158,
      "self": 1159,
      "ross": 1160,
      "cl": 1161,
      "Ġland": 1162,
      "ouse": 1163,
      "Ġcare": 1164,
      "rain": 1165,
      "acter": 1166,
      "Ġreport": 1167,
      "Ġcontin": 1168,
      "ĠThere": 1169,
      "orn": 1170,
      "gen": 1171,
      "Ġop": 1172,
      "itions": 1173,
      "ional": 1174,
      "ron": 1175,
      ",âĢĿ": 1176,
      "ull": 1177,
      "com": 1178,
      "Ġ8": 1179,
      "ee": 1180,
      "ared": 1181,
      "Ġallow": 1182,
      "Ġincluding": 1183,
      "Ġthough": 1184,
      "Ġconst": 1185,
      "Ġunderstand": 1186,
      "ash": 1187,
      "anc": 1188,
      "Ġequ": 1189,
      "This": 1190,
      "Ġeduc": 1191,
      "Ġadv": 1192,
      "ĠIs": 1193,
      "way": 1194,
      "Ġwrit": 1195,
      "Ġcour": 1196,
      "Ġbuild": 1197,
      "Ġret": 1198,
      "Ġmet": 1199,
      "eg": 1200,
      "ĠAnd": 1201,
      "Ġdr": 1202,
      "Ġsom": 1203,
      "Ġcalled": 1204,
      "iven": 1205,
      "Ġpract": 1206,
      "ĠâĢĺ": 1207,
      "ner": 1208,
      "esp": 1209,
      "iver": 1210,
      "aterial": 1211,
      "Ġstill": 1212,
      "Ġknown": 1213,
      "outh": 1214,
      "els": 1215,
      "Ġbeh": 1216,
      "ividual": 1217,
      "Ġpublic": 1218,
      "Ġeas": 1219,
      "ired": 1220,
      "Ġthink": 1221,
      "Ġquest": 1222,
      "10": 1223,
      "ĠWh": 1224,
      "Ġgu": 1225,
      "Ġide": 1226,
      "Ġplace": 1227,
      "ential": 1228,
      "erest": 1229,
      "ids": 1230,
      "iod": 1231,
      "âĢĵ": 1232,
      "oms": 1233,
      "Ġmight": 1234,
      "ries": 1235,
      "reen": 1236,
      "Ġ9": 1237,
      "osed": 1238,
      "ets": 1239,
      "inc": 1240,
      "Ġfew": 1241,
      "ected": 1242,
      ".\"": 1243,
      "Ġappro": 1244,
      "ank": 1245,
      "de": 1246,
      "ering": 1247,
      "Ġmat": 1248,
      "itive": 1249,
      "ĠThese": 1250,
      "ization": 1251,
      "Ġpresent": 1252,
      "ources": 1253,
      "bers": 1254,
      "Ġstand": 1255,
      "ination": 1256,
      "lish": 1257,
      "Ġtem": 1258,
      "Ġenergy": 1259,
      "Ġwant": 1260,
      "Ġchang": 1261,
      "Ġcaus": 1262,
      "eng": 1263,
      "Ġenvironment": 1264,
      "Ġpur": 1265,
      "raph": 1266,
      "Ġwithout": 1267,
      "Ġproduct": 1268,
      "Ġchange": 1269,
      "Ġdem": 1270,
      "ense": 1271,
      "Ġwithin": 1272,
      "oun": 1273,
      "ption": 1274,
      "âĢľ": 1275,
      "Ġindividual": 1276,
      "ration": 1277,
      "me": 1278,
      "ording": 1279,
      "Ġiss": 1280,
      "ĠEng": 1281,
      "ason": 1282,
      "ived": 1283,
      "tt": 1284,
      "angu": 1285,
      "Ġdevelopment": 1286,
      "ffic": 1287,
      "ertain": 1288,
      "Ġsym": 1289,
      "Ġ199": 1290,
      "Ġproject": 1291,
      "Ġlearn": 1292,
      "Ġmaterial": 1293,
      "ior": 1294,
      "Ġimpro": 1295,
      "Ġphys": 1296,
      "ĠDe": 1297,
      "Ġlight": 1298,
      "ethod": 1299,
      "Ġplay": 1300,
      "Ġdon": 1301,
      "Ġident": 1302,
      "man": 1303,
      "line": 1304,
      "Ġcap": 1305,
      "Ġprof": 1306,
      "sp": 1307,
      "Ġben": 1308,
      "Ġair": 1309,
      "Ġimm": 1310,
      "Ġ&": 1311,
      "arent": 1312,
      "eral": 1313,
      "Ġpot": 1314,
      "iness": 1315,
      "Ġdirect": 1316,
      "agn": 1317,
      "less": 1318,
      "Ġsl": 1319,
      "alk": 1320,
      "Ġdisease": 1321,
      "Ġbre": 1322,
      "ĠAmerican": 1323,
      "Ġanother": 1324,
      "ĠUniversity": 1325,
      "Ġpos": 1326,
      "Ġve": 1327,
      "Ġsit": 1328,
      "Ġpass": 1329,
      "Ġeng": 1330,
      "Ġarea": 1331,
      "bs": 1332,
      "Ġsocial": 1333,
      "Ġbelie": 1334,
      "ians": 1335,
      "Ġwomen": 1336,
      "ton": 1337,
      "illion": 1338,
      "ability": 1339,
      "orth": 1340,
      "Ġbest": 1341,
      "Ġlaw": 1342,
      "Ġvari": 1343,
      "ental": 1344,
      "ield": 1345,
      "Ġinclude": 1346,
      "Ġhome": 1347,
      "Ġinterest": 1348,
      "ified": 1349,
      "Ġmeas": 1350,
      "ĠCon": 1351,
      "Ġmus": 1352,
      "ajor": 1353,
      "ological": 1354,
      "Ġbas": 1355,
      "Ġcult": 1356,
      "ify": 1357,
      "Ġpain": 1358,
      "Ġblood": 1359,
      "Ġet": 1360,
      "ris": 1361,
      "rodu": 1362,
      "ained": 1363,
      "erc": 1364,
      "atural": 1365,
      "ug": 1366,
      "Ġmark": 1367,
      "ĠAd": 1368,
      "Ġrisk": 1369,
      "ccess": 1370,
      "Ġbecome": 1371,
      "Ġdesc": 1372,
      "Ġrest": 1373,
      "ently": 1374,
      "Ġant": 1375,
      "Ġanal": 1376,
      "'t": 1377,
      "atic": 1378,
      "Ġopp": 1379,
      "Ġcontrol": 1380,
      "It": 1381,
      "Ġsever": 1382,
      "ats": 1383,
      "Ġprogram": 1384,
      "ik": 1385,
      "Ġold": 1386,
      "ĠHowever": 1387,
      "ining": 1388,
      "az": 1389,
      "Ġbetter": 1390,
      "Ġhere": 1391,
      "ways": 1392,
      "ĠPh": 1393,
      "Ġanim": 1394,
      "Ġlow": 1395,
      "ource": 1396,
      "Ġproper": 1397,
      "Ġearly": 1398,
      "ĠSh": 1399,
      "ills": 1400,
      "here": 1401,
      "Ġeconom": 1402,
      "Ġmove": 1403,
      "Ġleg": 1404,
      "ern": 1405,
      "gin": 1406,
      "Ġmethod": 1407,
      "hor": 1408,
      "Ġgovernment": 1409,
      "Ġpar": 1410,
      "ision": 1411,
      "Ġagainst": 1412,
      "to": 1413,
      "Ġmil": 1414,
      "Ġkeep": 1415,
      "lished": 1416,
      "Ġlast": 1417,
      "arc": 1418,
      "Ġtoo": 1419,
      "Ġreal": 1420,
      "rist": 1421,
      "Ġfore": 1422,
      "ware": 1423,
      "Ġwar": 1424,
      "rap": 1425,
      "Ġsecond": 1426,
      "Ġtre": 1427,
      "ider": 1428,
      "eed": 1429,
      "Ġoper": 1430,
      "Ġorder": 1431,
      "Ġprovide": 1432,
      "Ġmeans": 1433,
      "str": 1434,
      "ients": 1435,
      "Ġcause": 1436,
      "icle": 1437,
      "Ġavail": 1438,
      "Ġele": 1439,
      "ead": 1440,
      "ories": 1441,
      "Ġfamily": 1442,
      "Ġgroup": 1443,
      "Ġhistory": 1444,
      "ention": 1445,
      "Ġoccur": 1446,
      "Ġter": 1447,
      "ission": 1448,
      "ards": 1449,
      "Ġmajor": 1450,
      "ĠRes": 1451,
      "Ġtop": 1452,
      "lu": 1453,
      "view": 1454,
      "ĠWhen": 1455,
      "amp": 1456,
      "Ġpossible": 1457,
      "Ġparticular": 1458,
      "ĠCl": 1459,
      "Ġdev": 1460,
      "Ġindu": 1461,
      "Ġperform": 1462,
      "Ġsay": 1463,
      "Ġcurrent": 1464,
      "ples": 1465,
      "Ġunt": 1466,
      "Ġseveral": 1467,
      "ĠUnited": 1468,
      "Ġlearning": 1469,
      "Ġperiod": 1470,
      "ĠEx": 1471,
      "Ġspecies": 1472,
      "Ġlangu": 1473,
      "Ġmean": 1474,
      "Ġinvol": 1475,
      "Ġaddition": 1476,
      "use": 1477,
      "Ġable": 1478,
      "ograph": 1479,
      "Ġfin": 1480,
      "Ġhig": 1481,
      "Ġsaf": 1482,
      "Ġnear": 1483,
      "ote": 1484,
      "Ġbenef": 1485,
      "par": 1486,
      "irc": 1487,
      "Ġorig": 1488,
      "oid": 1489,
      "Ġ[": 1490,
      "Ġhapp": 1491,
      "Ġmen": 1492,
      "ĠâĢĶ": 1493,
      "Ġ.": 1494,
      "Ġplant": 1495,
      "Ġ15": 1496,
      "ina": 1497,
      "Ġpercent": 1498,
      "ĠCol": 1499,
      "Ġbus": 1500,
      "ĠGod": 1501,
      "ogn": 1502,
      "Ġthings": 1503,
      "Ġfeel": 1504,
      "ĠPl": 1505,
      "Ġopen": 1506,
      "Ġel": 1507,
      "Ġcal": 1508,
      "Ġprom": 1509,
      "Ġsignific": 1510,
      "Ġcost": 1511,
      "Ġsince": 1512,
      "Ġaffect": 1513,
      "ator": 1514,
      "Ġlim": 1515,
      "Ġothers": 1516,
      "Ġnon": 1517,
      "ĠTo": 1518,
      "idence": 1519,
      "sy": 1520,
      "urop": 1521,
      "Ġscient": 1522,
      "Ġamong": 1523,
      "ret": 1524,
      "Ġareas": 1525,
      "ilar": 1526,
      "ane": 1527,
      "Ġmar": 1528,
      "ĠQ": 1529,
      "though": 1530,
      "ĠCan": 1531,
      "osp": 1532,
      "ĠZ": 1533,
      "Ġname": 1534,
      "Ġcountry": 1535,
      "Ġtreatment": 1536,
      "ended": 1537,
      "Ġavailable": 1538,
      "of": 1539,
      "Ġbased": 1540,
      "ĠSe": 1541,
      "ĠComm": 1542,
      "Ġhead": 1543,
      "ends": 1544,
      "ames": 1545,
      "Ġfour": 1546,
      "omp": 1547,
      "Ġfollowing": 1548,
      "ots": 1549,
      "Ġfre": 1550,
      "port": 1551,
      "Ġsays": 1552,
      "Ġtimes": 1553,
      "ling": 1554,
      "ĠStates": 1555,
      "ww": 1556,
      "elf": 1557,
      "Ġfac": 1558,
      "Ġprevent": 1559,
      "Ġcase": 1560,
      "ably": 1561,
      "Ġcome": 1562,
      "ocus": 1563,
      "sc": 1564,
      "Ġcond": 1565,
      "ole": 1566,
      "Ġaccess": 1567,
      ",\"": 1568,
      "ĠAt": 1569,
      "urther": 1570,
      "Ġcertain": 1571,
      "ances": 1572,
      "Ġpost": 1573,
      "Ġdel": 1574,
      "Ġmonth": 1575,
      "cing": 1576,
      "Ġage": 1577,
      "Ġwee": 1578,
      "Ġfree": 1579,
      "Ġlo": 1580,
      "Ġproblem": 1581,
      "ĠWhat": 1582,
      "Ġlist": 1583,
      "Ġconn": 1584,
      "be": 1585,
      "aper": 1586,
      "ploy": 1587,
      "Ġstruct": 1588,
      "Ġrece": 1589,
      "Ġview": 1590,
      "Ġobject": 1591,
      "Ġtype": 1592,
      "ised": 1593,
      "Ġlab": 1594,
      "une": 1595,
      "ression": 1596,
      "Ġrun": 1597,
      "Ġcreat": 1598,
      "Ġnatural": 1599,
      "urope": 1600,
      "Ġput": 1601,
      "Ġproblems": 1602,
      "ox": 1603,
      "Ġlittle": 1604,
      "Ġlocal": 1605,
      "Ġ17": 1606,
      "Ġpress": 1607,
      "ring": 1608,
      "ope": 1609,
      "Ġsuccess": 1610,
      "Ġgr": 1611,
      "icult": 1612,
      "Ġvol": 1613,
      "ones": 1614,
      "Ġhard": 1615,
      "oint": 1616,
      "Ġbro": 1617,
      "Ġbi": 1618,
      "Ġ12": 1619,
      "What": 1620,
      "Ġbir": 1621,
      "Ġintern": 1622,
      "resent": 1623,
      "olution": 1624,
      "hy": 1625,
      "Ġlevels": 1626,
      "ggest": 1627,
      "ĠEn": 1628,
      "Ġlet": 1629,
      "Ġamount": 1630,
      "Ġassoci": 1631,
      "ething": 1632,
      "ĠCent": 1633,
      "We": 1634,
      "br": 1635,
      "Ġflow": 1636,
      "Ġmult": 1637,
      "Ġfar": 1638,
      "ĠTe": 1639,
      "work": 1640,
      "Ġyoung": 1641,
      "Ġbook": 1642,
      "Ġimpact": 1643,
      "ledge": 1644,
      "Ġmaking": 1645,
      "Ġess": 1646,
      "__": 1647,
      "Ġuntil": 1648,
      "Ġsignificant": 1649,
      "Ġcells": 1650,
      "ither": 1651,
      "Ġlater": 1652,
      "If": 1653,
      "ĠAf": 1654,
      "Ġdue": 1655,
      "ĠNational": 1656,
      "ortun": 1657,
      "por": 1658,
      "Ġgiven": 1659,
      "ately": 1660,
      "Ġturn": 1661,
      "ides": 1662,
      "oks": 1663,
      "Ġsw": 1664,
      "ged": 1665,
      "atory": 1666,
      "Ġsuggest": 1667,
      "uture": 1668,
      "Ġfocus": 1669,
      "Ġshort": 1670,
      "ĠBe": 1671,
      "stit": 1672,
      "Ġcomput": 1673,
      "Ġseem": 1674,
      "not": 1675,
      "Ġcho": 1676,
      "ĠEurope": 1677,
      "Ġdeterm": 1678,
      "12": 1679,
      "ĠChrist": 1680,
      "18": 1681,
      "ication": 1682,
      "over": 1683,
      "Ġvir": 1684,
      "Ġeducation": 1685,
      "ured": 1686,
      "Ġbehav": 1687,
      "aken": 1688,
      "aps": 1689,
      "Ġinvest": 1690,
      "Ġfunction": 1691,
      "Ġlikely": 1692,
      "As": 1693,
      "Ġrad": 1694,
      "Ġpolit": 1695,
      "ĠOn": 1696,
      "hem": 1697,
      "ĠOr": 1698,
      "ĠFr": 1699,
      "Ġdays": 1700,
      "cle": 1701,
      "agement": 1702,
      "Ġsystems": 1703,
      "Ġheart": 1704,
      "Ġcirc": 1705,
      "Ġ0": 1706,
      "Ġcommunity": 1707,
      "Ġsomething": 1708,
      "Ġfil": 1709,
      "face": 1710,
      "Ġhy": 1711,
      "Ġalong": 1712,
      "pect": 1713,
      "ĠUS": 1714,
      "Ġappear": 1715,
      "Ġalways": 1716,
      "ending": 1717,
      "Ġcomb": 1718,
      "Ġcourse": 1719,
      "ried": 1720,
      "Ġlanguage": 1721,
      "ĠAll": 1722,
      "Ġobs": 1723,
      "Ġincrease": 1724,
      "vious": 1725,
      "Ġusually": 1726,
      "Ġteac": 1727,
      "orld": 1728,
      "Ġdra": 1729,
      "Ġdeath": 1730,
      "Ġdifficult": 1731,
      "Ġtechnology": 1732,
      "Ġcreate": 1733,
      "pr": 1734,
      "ecially": 1735,
      "Ġresults": 1736,
      "Ġrele": 1737,
      "Ġexperience": 1738,
      "Ġsing": 1739,
      "Ġclear": 1740,
      "Ġspecific": 1741,
      "Ġwords": 1742,
      "Ġgive": 1743,
      "aster": 1744,
      "ohn": 1745,
      "ape": 1746,
      "Ġpast": 1747,
      "Ġsimilar": 1748,
      "Ġtemper": 1749,
      "Ġtoday": 1750,
      "Ġenc": 1751,
      "Ġauthor": 1752,
      "Ġconsum": 1753,
      "etic": 1754,
      "isc": 1755,
      "ember": 1756,
      "Ġparent": 1757,
      "Ġneeds": 1758,
      "ators": 1759,
      "Ġ16": 1760,
      "ĠSo": 1761,
      "Ġexist": 1762,
      "af": 1763,
      "ociety": 1764,
      "Ġ$": 1765,
      "Ġbrain": 1766,
      "app": 1767,
      "Ġline": 1768,
      "asing": 1769,
      "ned": 1770,
      "Ġcharacter": 1771,
      "Ġconditions": 1772,
      "Ġdiscuss": 1773,
      "Ġeffective": 1774,
      "Ġspace": 1775,
      "Ġwhy": 1776,
      "Ġill": 1777,
      "50": 1778,
      "Ġrecord": 1779,
      "Ġpopulation": 1780,
      "ours": 1781,
      "Ġcentury": 1782,
      "min": 1783,
      "Ġcancer": 1784,
      "Ġmillion": 1785,
      "Ġey": 1786,
      "especially": 1787,
      "ptoms": 1788,
      "idd": 1789,
      "Ġabove": 1790,
      "Ġfuture": 1791,
      "aining": 1792,
      "Ġdescrib": 1793,
      "Ġnecess": 1794,
      "mit": 1795,
      "obal": 1796,
      "Ġnext": 1797,
      "Ġcr": 1798,
      "Ġcrit": 1799,
      "Ġvarious": 1800,
      "Ġspecial": 1801,
      "Ġhigher": 1802,
      "ler": 1803,
      "Ġprofess": 1804,
      "11": 1805,
      "ribut": 1806,
      "Ġ'": 1807,
      "ored": 1808,
      "ruction": 1809,
      "ĠBl": 1810,
      "ĠMed": 1811,
      "Ġbegin": 1812,
      "Ġer": 1813,
      "Ġtry": 1814,
      "Ġworks": 1815,
      "Ġdam": 1816,
      "Ġgre": 1817,
      "Ġacross": 1818,
      "Ġprop": 1819,
      "Ġapplic": 1820,
      "Ġhowever": 1821,
      "Ġtoget": 1822,
      "Ġtogether": 1823,
      "There": 1824,
      "Ġside": 1825,
      "Ġcountries": 1826,
      "Ġleast": 1827,
      "oney": 1828,
      "most": 1829,
      "Ġchanges": 1830,
      "rug": 1831,
      "Ġmov": 1832,
      "Ġrequire": 1833,
      "ĠAfric": 1834,
      "Ġstrong": 1835,
      "Ġask": 1836,
      "selves": 1837,
      "orts": 1838,
      "Ġbusiness": 1839,
      "ilities": 1840,
      "atch": 1841,
      "ray": 1842,
      "ique": 1843,
      "Ġnever": 1844,
      "ode": 1845,
      "Ġkind": 1846,
      "ĠBrit": 1847,
      "Ġimprove": 1848,
      "aves": 1849,
      "Ġrespons": 1850,
      "Ġestab": 1851,
      "Ġworking": 1852,
      "Ġtool": 1853,
      "ateg": 1854,
      "Ġleft": 1855,
      "omes": 1856,
      "Ġcomplete": 1857,
      "Ġplants": 1858,
      "ĠEar": 1859,
      "How": 1860,
      "Ġenough": 1861,
      "Ġways": 1862,
      "Ġaway": 1863,
      "Ġterm": 1864,
      "aces": 1865,
      "Ġmot": 1866,
      "nal": 1867,
      "amm": 1868,
      "St": 1869,
      "Ġtru": 1870,
      "Ġespecially": 1871,
      "sw": 1872,
      "Ġpatients": 1873,
      "Ġcolle": 1874,
      "by": 1875,
      "Ġcy": 1876,
      "thing": 1877,
      "ilt": 1878,
      "oot": 1879,
      "Ġresearc": 1880,
      "acy": 1881,
      "Ġteam": 1882,
      "Ġeffects": 1883,
      "Ġsens": 1884,
      "ysis": 1885,
      "Ġnet": 1886,
      "Ġhaving": 1887,
      "Ġchem": 1888,
      "Ġgeneral": 1889,
      "Ġprim": 1890,
      "ĠSy": 1891,
      "for": 1892,
      "Ġfull": 1893,
      "aching": 1894,
      "Ġsubject": 1895,
      "aring": 1896,
      "Ġkey": 1897,
      "Ġcases": 1898,
      "Ġconsider": 1899,
      "duct": 1900,
      "ires": 1901,
      "Ġknowledge": 1902,
      "Ġstudies": 1903,
      "Ġrelations": 1904,
      "Ġtypes": 1905,
      "alf": 1906,
      "Ġgoing": 1907,
      "ales": 1908,
      "oman": 1909,
      "ument": 1910,
      "let": 1911,
      "iting": 1912,
      "lement": 1913,
      "Ġinflu": 1914,
      "ges": 1915,
      "aim": 1916,
      "chie": 1917,
      "side": 1918,
      "Ġbecame": 1919,
      "ĠSome": 1920,
      "ley": 1921,
      "Ġmind": 1922,
      "Ġstep": 1923,
      "hing": 1924,
      "ipp": 1925,
      "Ġwhether": 1926,
      "Ġaccount": 1927,
      "acc": 1928,
      "ĠWar": 1929,
      "Ġ198": 1930,
      "Ġrepresent": 1931,
      "ĠJohn": 1932,
      "ĠGerm": 1933,
      "//": 1934,
      "Ġhouse": 1935,
      "Ġself": 1936,
      "Ġnorm": 1937,
      "ann": 1938,
      "Ġconcer": 1939,
      "Ġprotect": 1940,
      "Ġlower": 1941,
      "ued": 1942,
      "Ġreason": 1943,
      "ĠOne": 1944,
      "ĠWith": 1945,
      "Ġfurther": 1946,
      "Ġsymptoms": 1947,
      "Ġrole": 1948,
      "ency": 1949,
      "ready": 1950,
      "istic": 1951,
      "Ġmakes": 1952,
      "Ġz": 1953,
      "Ġlive": 1954,
      "Ġopt": 1955,
      "ification": 1956,
      "edi": 1957,
      "ae": 1958,
      "Ġphysical": 1959,
      "itor": 1960,
      "Ġground": 1961,
      "apt": 1962,
      "atures": 1963,
      "ĠEnglish": 1964,
      "Ġbig": 1965,
      "Ġpolic": 1966,
      "Ġsum": 1967,
      "Ġquestion": 1968,
      "Ġscience": 1969,
      "ĠLe": 1970,
      "ĠWorld": 1971,
      "...": 1972,
      "Ġcity": 1973,
      "ites": 1974,
      "ery": 1975,
      "Ġpred": 1976,
      "Ġproduction": 1977,
      "NA": 1978,
      "ĠGen": 1979,
      "ott": 1980,
      "aut": 1981,
      "Ġsure": 1982,
      "ables": 1983,
      "Ġens": 1984,
      "Ġchall": 1985,
      "ĠGo": 1986,
      "Ġfund": 1987,
      "Ġtext": 1988,
      "30": 1989,
      "Ġdig": 1990,
      "ung": 1991,
      "Ġ30": 1992,
      "ird": 1993,
      "://": 1994,
      "Ġseen": 1995,
      "Ġtoward": 1996,
      "Ġvalue": 1997,
      "Ġactivities": 1998,
      "Ġrange": 1999,
      "icro": 2000,
      "lo": 2001,
      "cul": 2002,
      "Ġeff": 2003,
      "Ġreally": 2004,
      "Ġgroups": 2005,
      "For": 2006,
      "An": 2007,
      "Ġindic": 2008,
      "Ġlot": 2009,
      "200": 2010,
      "Ġgrowth": 2011,
      "15": 2012,
      "ibility": 2013,
      "augh": 2014,
      "Ġalready": 2015,
      "Ġparticip": 2016,
      "Ġdone": 2017,
      "ream": 2018,
      "sych": 2019,
      "verage": 2020,
      "bon": 2021,
      "rel": 2022,
      "Ġstory": 2023,
      "Ġwr": 2024,
      "Ġactivity": 2025,
      "iol": 2026,
      "erence": 2027,
      "ĠThat": 2028,
      "Ġmodel": 2029,
      "ĠHealth": 2030,
      "Ġbelow": 2031,
      "Ġrather": 2032,
      "Ġnut": 2033,
      "Ġclose": 2034,
      "Ġresources": 2035,
      "unt": 2036,
      "Ġloss": 2037,
      "Ġwind": 2038,
      "uation": 2039,
      "Ġstat": 2040,
      "urch": 2041,
      "Ġemploy": 2042,
      "Ġfall": 2043,
      "Ġpotential": 2044,
      "Ġarticle": 2045,
      "Ġquality": 2046,
      "16": 2047,
      "Ġword": 2048,
      "Ġoffic": 2049,
      "oura": 2050,
      "etimes": 2051,
      "iation": 2052,
      "Ġdeveloped": 2053,
      "Ġproducts": 2054,
      "Ġoil": 2055,
      "Ġpaper": 2056,
      "ands": 2057,
      "iple": 2058,
      "ĠIntern": 2059,
      "Ġ14": 2060,
      "esc": 2061,
      "Ġeither": 2062,
      "mber": 2063,
      "osis": 2064,
      "ĠBy": 2065,
      "ĠCar": 2066,
      "Ġrecogn": 2067,
      "Ġachie": 2068,
      "Ġdeg": 2069,
      "Ġskills": 2070,
      "fact": 2071,
      "overed": 2072,
      "Ġprob": 2073,
      "Ġfield": 2074,
      "Ġsite": 2075,
      "Ġbat": 2076,
      "Ġneg": 2077,
      "Ġtradition": 2078,
      "Ġmass": 2079,
      "Ġevent": 2080,
      "ival": 2081,
      "Ġindust": 2082,
      "idered": 2083,
      "Ġsingle": 2084,
      "Ġreduce": 2085,
      "rams": 2086,
      "ĠAm": 2087,
      "Ġclimate": 2088,
      "Ġaccording": 2089,
      "iam": 2090,
      "ĠMar": 2091,
      "ĠGe": 2092,
      "Ġphot": 2093,
      "put": 2094,
      "Ġur": 2095,
      "Ġabs": 2096,
      "leep": 2097,
      "Ġbuilding": 2098,
      "Ġsoil": 2099,
      "Ġnational": 2100,
      "ĠIm": 2101,
      "Ġissues": 2102,
      "ER": 2103,
      "Ġsource": 2104,
      "val": 2105,
      "Ġonce": 2106,
      "ĠShe": 2107,
      "ĠAb": 2108,
      "earch": 2109,
      "Ġmembers": 2110,
      "ĠTr": 2111,
      "Ġinit": 2112,
      "Ġconcept": 2113,
      "Ġdom": 2114,
      "eter": 2115,
      "urity": 2116,
      "Ġcollect": 2117,
      "ĠCal": 2118,
      "rict": 2119,
      "Ġfive": 2120,
      "Ġtaken": 2121,
      "Ġrate": 2122,
      "Ġmedical": 2123,
      "17": 2124,
      "Ġsurface": 2125,
      "ĠDr": 2126,
      "Ġobserv": 2127,
      "ask": 2128,
      "Ġflu": 2129,
      "Ġwhole": 2130,
      "Ġupon": 2131,
      "Ġaddress": 2132,
      "Ġfr": 2133,
      "Ġcut": 2134,
      "Ġdrug": 2135,
      "rect": 2136,
      "ĠSouth": 2137,
      "Ġmeet": 2138,
      "ivil": 2139,
      "14": 2140,
      "Ġfrequ": 2141,
      "Ġsun": 2142,
      "ĠNorth": 2143,
      "ison": 2144,
      "Ġconsidered": 2145,
      "Ġwhite": 2146,
      "ublic": 2147,
      "ĠAmerica": 2148,
      "Ġquestions": 2149,
      "ule": 2150,
      "Ġfail": 2151,
      "Ġsize": 2152,
      "Ġred": 2153,
      "fer": 2154,
      "Ġrelig": 2155,
      "Ġevidence": 2156,
      "Ġtot": 2157,
      "fficient": 2158,
      "Ġcame": 2159,
      "Ġrecomm": 2160,
      "âĢ¦": 2161,
      "Ġthemselves": 2162,
      "Ġann": 2163,
      "Ġ=": 2164,
      "ips": 2165,
      "amin": 2166,
      "13": 2167,
      "ivity": 2168,
      "Ġcreated": 2169,
      "Ġresearchers": 2170,
      "Ġtell": 2171,
      "Ġdetail": 2172,
      "Ġwide": 2173,
      "Ġfri": 2174,
      "Ġsent": 2175,
      "Ġsound": 2176,
      "Ġnature": 2177,
      "Ġassociated": 2178,
      "ĠPr": 2179,
      "Ġintrodu": 2180,
      "Ġpressure": 2181,
      "Ġliving": 2182,
      "plic": 2183,
      "sh": 2184,
      "reme": 2185,
      "ym": 2186,
      "ĠStud": 2187,
      "Ġpay": 2188,
      "roll": 2189,
      "Ġcannot": 2190,
      "Ġhold": 2191,
      "Ġver": 2192,
      "Ġmarket": 2193,
      "Ġreturn": 2194,
      "Ġdest": 2195,
      "Ġdoct": 2196,
      "illed": 2197,
      "Ġanimals": 2198,
      "ĠMay": 2199,
      "Ġpolitical": 2200,
      "epend": 2201,
      "Ġincreased": 2202,
      "org": 2203,
      "Ġpractice": 2204,
      "Ġskin": 2205,
      "ights": 2206,
      "When": 2207,
      "like": 2208,
      "ensive": 2209,
      "ournal": 2210,
      "ibr": 2211,
      "Ġunderstanding": 2212,
      "Ġrelated": 2213,
      "Ġlay": 2214,
      "Ġthought": 2215,
      "reg": 2216,
      "aced": 2217,
      "Ġopportun": 2218,
      "Ġactually": 2219,
      "Ġsimple": 2220,
      "Ġrequired": 2221,
      "Ġ197": 2222,
      "oph": 2223,
      "Ġstates": 2224,
      "sequ": 2225,
      "ĠAss": 2226,
      "eb": 2227,
      "Ġengine": 2228,
      "Ġsal": 2229,
      "Ġstress": 2230,
      "Ġrelationship": 2231,
      "Ġhistor": 2232,
      "enn": 2233,
      "Ġentire": 2234,
      "Ġadult": 2235,
      "Ġquick": 2236,
      "ĠMan": 2237,
      "Ġweek": 2238,
      "ĠRep": 2239,
      "ober": 2240,
      "Ġneeded": 2241,
      "oon": 2242,
      "itud": 2243,
      "ai": 2244,
      "Ġhealthy": 2245,
      "Ġstudent": 2246,
      "Ġspe": 2247,
      "Ġpurp": 2248,
      "Ġidea": 2249,
      "Ġmaterials": 2250,
      "utions": 2251,
      "Ġmaint": 2252,
      "Ġability": 2253,
      "Ġ13": 2254,
      "Ġfamil": 2255,
      "Ġglobal": 2256,
      "Ġcomes": 2257,
      "Ġblack": 2258,
      "Ġcomplex": 2259,
      "eds": 2260,
      "yn": 2261,
      "ĠAust": 2262,
      "Ġmoney": 2263,
      "ening": 2264,
      "Ġport": 2265,
      "Ġcondition": 2266,
      "Ġdoc": 2267,
      "Ġexperien": 2268,
      "Ġeconomic": 2269,
      "Ġpublished": 2270,
      "Ġitself": 2271,
      "Ġalmost": 2272,
      "ging": 2273,
      "acks": 2274,
      "Ġansw": 2275,
      "Ġfish": 2276,
      "Ġmodern": 2277,
      "artment": 2278,
      "aging": 2279,
      "Ġarg": 2280,
      "Ġfactors": 2281,
      "ĠYork": 2282,
      "Ġprovides": 2283,
      "Ġdog": 2284,
      "ened": 2285,
      "Ġmor": 2286,
      "Ġhtt": 2287,
      "Ġvers": 2288,
      "oses": 2289,
      "ush": 2290,
      "Ġparts": 2291,
      "ump": 2292,
      "Ġfat": 2293,
      "aged": 2294,
      ".)": 2295,
      "Ġservices": 2296,
      "Ġavoid": 2297,
      "AS": 2298,
      "pro": 2299,
      "Ġrights": 2300,
      "ney": 2301,
      "Ch": 2302,
      "erve": 2303,
      "olic": 2304,
      "Ġcat": 2305,
      "rad": 2306,
      "ĠAct": 2307,
      "Ġnecessary": 2308,
      "Ġmanagement": 2309,
      "hib": 2310,
      "go": 2311,
      "Ġmonths": 2312,
      "Ġdiet": 2313,
      "itary": 2314,
      "Ġexerc": 2315,
      "urs": 2316,
      "lying": 2317,
      "uel": 2318,
      "mb": 2319,
      "vere": 2320,
      "Ġsuff": 2321,
      "Ġ|": 2322,
      "Ġprote": 2323,
      "ences": 2324,
      "chan": 2325,
      "):": 2326,
      "ĠEarth": 2327,
      "Ġpath": 2328,
      "Ġcoll": 2329,
      "ĠComp": 2330,
      "Ġweight": 2331,
      "ĠDep": 2332,
      "Ġtook": 2333,
      "bo": 2334,
      "Ġlink": 2335,
      "Ġhalf": 2336,
      "ĠGu": 2337,
      "Ġparents": 2338,
      "Ġreact": 2339,
      "Ġapproach": 2340,
      "Ġproduce": 2341,
      "gest": 2342,
      "yl": 2343,
      "Ġmeasure": 2344,
      "Ġsuper": 2345,
      "Ġassess": 2346,
      "Ġbegan": 2347,
      "Ġpriv": 2348,
      "ores": 2349,
      "Ġgas": 2350,
      "ply": 2351,
      "To": 2352,
      "ĠX": 2353,
      "Ġbar": 2354,
      "ĠHis": 2355,
      "Al": 2356,
      "rown": 2357,
      "iet": 2358,
      "Ġarr": 2359,
      "Ġcolor": 2360,
      "Ġgreen": 2361,
      "based": 2362,
      "ĠDo": 2363,
      "ĠHist": 2364,
      "Ġarch": 2365,
      "Ġsoft": 2366,
      "Ġmedic": 2367,
      "Ġever": 2368,
      "oll": 2369,
      "Ġconduct": 2370,
      "Ġanalysis": 2371,
      "Ġcomputer": 2372,
      "ĠState": 2373,
      "Ġjob": 2374,
      "Ġliter": 2375,
      "izing": 2376,
      "Ġpersonal": 2377,
      "Ġyet": 2378,
      "cient": 2379,
      "Ġemer": 2380,
      "usion": 2381,
      "Ġpopular": 2382,
      "Ġpattern": 2383,
      "abor": 2384,
      "my": 2385,
      "Ġtar": 2386,
      "Ġ100": 2387,
      "Ġfire": 2388,
      "Ġfeed": 2389,
      "Ġfarm": 2390,
      "Ġreading": 2391,
      "Ġclaim": 2392,
      "utes": 2393,
      "Ġregion": 2394,
      "ĠCont": 2395,
      "Ġsam": 2396,
      "iction": 2397,
      "Ġthroughout": 2398,
      "nces": 2399,
      "irm": 2400,
      "Ġtherap": 2401,
      "Ġstop": 2402,
      "onse": 2403,
      "empt": 2404,
      "inter": 2405,
      "Ġcontent": 2406,
      "iddle": 2407,
      "Ġcop": 2408,
      "You": 2409,
      "ma": 2410,
      "Ġsense": 2411,
      "Ġchemical": 2412,
      "Ġsepar": 2413,
      "Ġregard": 2414,
      "Ġge": 2415,
      "Ġrepl": 2416,
      "Ġtaking": 2417,
      "--": 2418,
      "ume": 2419,
      "ections": 2420,
      "Wh": 2421,
      "ĠJew": 2422,
      "Ġaction": 2423,
      "abit": 2424,
      "Ġindividuals": 2425,
      "Ġprinc": 2426,
      "ĠCo": 2427,
      "Ġincreasing": 2428,
      "ccording": 2429,
      "ĠNe": 2430,
      "Ġshows": 2431,
      "ese": 2432,
      "ĠAfter": 2433,
      "Ġonline": 2434,
      "ze": 2435,
      "Ġrul": 2436,
      "erous": 2437,
      "Ġbur": 2438,
      "het": 2439,
      "uck": 2440,
      "igure": 2441,
      "hold": 2442,
      "Ġwriting": 2443,
      "son": 2444,
      "ES": 2445,
      "Ġ196": 2446,
      "Ġdeb": 2447,
      "Ġsociety": 2448,
      "icles": 2449,
      "Ġbuilt": 2450,
      "emic": 2451,
      "Ġservice": 2452,
      "ĠBritish": 2453,
      "Ġcompany": 2454,
      "Ġsleep": 2455,
      "Ġtalk": 2456,
      "\".": 2457,
      "Ġlonger": 2458,
      "ript": 2459,
      "Ġterms": 2460,
      "Ġrecent": 2461,
      "Ġtraining": 2462,
      "Ġprevious": 2463,
      "apan": 2464,
      "ches": 2465,
      "Ġut": 2466,
      "Ġ50": 2467,
      "Ġtotal": 2468,
      "estern": 2469,
      "AT": 2470,
      "pid": 2471,
      "Ġinteract": 2472,
      "Ġla": 2473,
      "ising": 2474,
      "ively": 2475,
      "Ġclean": 2476,
      "Ġindustry": 2477,
      "Ġsix": 2478,
      "ĠWhile": 2479,
      "Ġhours": 2480,
      "anced": 2481,
      "Ġposition": 2482,
      "Ã©": 2483,
      "itation": 2484,
      "ĠCanad": 2485,
      "Ġtemperature": 2486,
      "Ġmatter": 2487,
      "Ġstructure": 2488,
      "lor": 2489,
      "Ġsurv": 2490,
      "wh": 2491,
      "astic": 2492,
      "Ġmeaning": 2493,
      "Ġheav": 2494,
      "yle": 2495,
      "Ġinj": 2496,
      "Ġtravel": 2497,
      "ĠPe": 2498,
      "Ġthing": 2499,
      "Ġbehavior": 2500,
      "Ġenvironmental": 2501,
      "Ġcaused": 2502,
      "Ġetc": 2503,
      "Ġdiagn": 2504,
      "Ġcontact": 2505,
      "iment": 2506,
      "minist": 2507,
      "reng": 2508,
      "Ġschools": 2509,
      "Ġdisord": 2510,
      "fully": 2511,
      "ns": 2512,
      "Ġheat": 2513,
      "ricult": 2514,
      "Ġ25": 2515,
      "Ġlives": 2516,
      "ID": 2517,
      "Ġcheck": 2518,
      "ulations": 2519,
      "Ġbenefits": 2520,
      "Ġprovided": 2521,
      "Ġbreak": 2522,
      "Ġcauses": 2523,
      "Ġsat": 2524,
      "Ġconc": 2525,
      "Ġeasy": 2526,
      "Ġce": 2527,
      "ows": 2528,
      "Ġtrue": 2529,
      "Ġsex": 2530,
      "AR": 2531,
      "lt": 2532,
      "ederal": 2533,
      "Ġcontain": 2534,
      "Ġ11": 2535,
      "Ġbring": 2536,
      "istance": 2537,
      "Ġmach": 2538,
      "ropri": 2539,
      "aff": 2540,
      "Ġdesigned": 2541,
      "aily": 2542,
      "mon": 2543,
      "ĠNo": 2544,
      "ene": 2545,
      "Ġshown": 2546,
      "ĠResearch": 2547,
      "vey": 2548,
      "Ġaccept": 2549,
      "Ġrev": 2550,
      "hood": 2551,
      "ster": 2552,
      "ĠSchool": 2553,
      "ched": 2554,
      "Ġspread": 2555,
      "inary": 2556,
      "Ġsafe": 2557,
      "ĠEm": 2558,
      "lex": 2559,
      "Ġvide": 2560,
      "Ġpositive": 2561,
      "ronic": 2562,
      "Ġvariety": 2563,
      "Ġprec": 2564,
      "lands": 2565,
      "rought": 2566,
      "Ġregular": 2567,
      "light": 2568,
      "ĠII": 2569,
      "ĠPar": 2570,
      "Ġincludes": 2571,
      "Ġwild": 2572,
      "Ġlove": 2573,
      "Ġbelieve": 2574,
      "Ġearth": 2575,
      "Ġaverage": 2576,
      "Ġfem": 2577,
      "aving": 2578,
      "gar": 2579,
      "ister": 2580,
      "istics": 2581,
      "Ġmethods": 2582,
      "imately": 2583,
      "ĠÂ": 2584,
      "asc": 2585,
      "Ġ194": 2586,
      "Ġstandard": 2587,
      "Ġfru": 2588,
      "Ġdeep": 2589,
      "atives": 2590,
      "Ġviol": 2591,
      "Ġmusic": 2592,
      "Ġprograms": 2593,
      "ĠIndia": 2594,
      "Ġlif": 2595,
      "ufact": 2596,
      "ners": 2597,
      "Ġrelative": 2598,
      "Ġorigin": 2599,
      "Ġeat": 2600,
      "Ġled": 2601,
      "Ġgreater": 2602,
      "ĠJapan": 2603,
      "aries": 2604,
      "Ġsimply": 2605,
      "Ġissue": 2606,
      "ĠSu": 2607,
      "rior": 2608,
      "Ġste": 2609,
      "Ġcarbon": 2610,
      "Ġsometimes": 2611,
      "Ġtarget": 2612,
      "Ġslow": 2613,
      "amed": 2614,
      "Ġsubst": 2615,
      "rast": 2616,
      "ĠInstit": 2617,
      "dom": 2618,
      "ades": 2619,
      "Ġdoing": 2620,
      "Ġbacter": 2621,
      "Ġhelps": 2622,
      "But": 2623,
      "eration": 2624,
      "duc": 2625,
      "Ġpoll": 2626,
      "Ġmovement": 2627,
      "Ġscientists": 2628,
      "Ġthreat": 2629,
      "know": 2630,
      "Ġuses": 2631,
      "Ġculture": 2632,
      "rench": 2633,
      "Ġexc": 2634,
      "verse": 2635,
      "abet": 2636,
      "Ġrespect": 2637,
      "Ġwritten": 2638,
      "Ġface": 2639,
      "Ġcompan": 2640,
      "new": 2641,
      "Ġmechan": 2642,
      "Ġreview": 2643,
      "aling": 2644,
      "Ġoriginal": 2645,
      "Ġidentify": 2646,
      "Ġevents": 2647,
      "Ġreported": 2648,
      "osition": 2649,
      "arily": 2650,
      "Ġencoura": 2651,
      "Ġresponse": 2652,
      "Ġinvolved": 2653,
      "Ġdamage": 2654,
      "ength": 2655,
      "ĠKing": 2656,
      "Ġstreng": 2657,
      "ĠSec": 2658,
      "ucle": 2659,
      "Ġremov": 2660,
      "Ġpoor": 2661,
      "Ġsources": 2662,
      "Ġcompet": 2663,
      "Ġoutside": 2664,
      "Ġimage": 2665,
      "Ġpsych": 2666,
      "Ġemot": 2667,
      "ĠPres": 2668,
      "ban": 2669,
      "ials": 2670,
      "Ġpict": 2671,
      "Ġdemon": 2672,
      "rand": 2673,
      "Ġcamp": 2674,
      "Ġple": 2675,
      "Ġforms": 2676,
      "Ġlack": 2677,
      "elling": 2678,
      "Ġpage": 2679,
      "Ġcompon": 2680,
      "Ġnormal": 2681,
      "aches": 2682,
      "ĠScience": 2683,
      "ender": 2684,
      "Ġtax": 2685,
      "Ġensure": 2686,
      "Ġrefer": 2687,
      "oor": 2688,
      "Ġdeveloping": 2689,
      "Ġwebs": 2690,
      "Ġfoods": 2691,
      "Ġcust": 2692,
      "ĠPer": 2693,
      "ĠWill": 2694,
      "uge": 2695,
      "ctions": 2696,
      "Ġparticularly": 2697,
      "umb": 2698,
      "Ġbasic": 2699,
      "Ġessential": 2700,
      "Ġmicro": 2701,
      "ops": 2702,
      "22": 2703,
      "Ġattention": 2704,
      "room": 2705,
      "ises": 2706,
      "Ġemb": 2707,
      "Ġbal": 2708,
      "Ġattempt": 2709,
      "Ġshare": 2710,
      "oles": 2711,
      "ief": 2712,
      "ĠMin": 2713,
      "ervation": 2714,
      "Ġforest": 2715,
      "Ġserious": 2716,
      "Ġinteg": 2717,
      "IN": 2718,
      "Ġgenerally": 2719,
      "Ġimplement": 2720,
      "Ġgrowing": 2721,
      "Ġforce": 2722,
      "Ġlog": 2723,
      "ĠCO": 2724,
      "Ġlate": 2725,
      "Ġsust": 2726,
      "Ġproduced": 2727,
      "ached": 2728,
      "rated": 2729,
      "rim": 2730,
      "Ġchalleng": 2731,
      "Ġextreme": 2732,
      "ĠAustral": 2733,
      "ming": 2734,
      "Ġaff": 2735,
      "ĠMany": 2736,
      "ĠEd": 2737,
      "issions": 2738,
      "Ġwood": 2739,
      "Ġfeet": 2740,
      "Ġlat": 2741,
      "lies": 2742,
      "Ġelectric": 2743,
      "Ġdispl": 2744,
      "Ġnetwork": 2745,
      "Ġnumbers": 2746,
      "Ġattack": 2747,
      "Ġharm": 2748,
      "IS": 2749,
      "Ġteachers": 2750,
      "idge": 2751,
      "Ġsqu": 2752,
      "ĠMe": 2753,
      "bor": 2754,
      "Ġcorrect": 2755,
      "ĠApp": 2756,
      "Ġanimal": 2757,
      "osure": 2758,
      "Ġprobably": 2759,
      "cil": 2760,
      "Ġcoun": 2761,
      "Ġvisit": 2762,
      "ĠQu": 2763,
      "Ġdoesn": 2764,
      "isions": 2765,
      "set": 2766,
      "ana": 2767,
      "osing": 2768,
      "Ġvirus": 2769,
      "Ġincluded": 2770,
      "Ġcontinue": 2771,
      "Ġdefin": 2772,
      "ĠChina": 2773,
      "Ġideas": 2774,
      "Ġaware": 2775,
      "Ġconsist": 2776,
      "Ġ/": 2777,
      "Ġdraw": 2778,
      "irit": 2779,
      "ems": 2780,
      "fect": 2781,
      "Ġselect": 2782,
      "25": 2783,
      "Ġpatient": 2784,
      "Ġir": 2785,
      "ĠHar": 2786,
      "Ġmanufact": 2787,
      "Ġseries": 2788,
      "Ġap": 2789,
      "ĠInt": 2790,
      "Ġtakes": 2791,
      "Ġgetting": 2792,
      "Ġox": 2793,
      "Ġsafety": 2794,
      "Ġnight": 2795,
      "Ġindepend": 2796,
      "ribution": 2797,
      "ĠPre": 2798,
      "Ġsomeone": 2799,
      "Ġ24": 2800,
      "ads": 2801,
      "imum": 2802,
      "ecause": 2803,
      "Ġkids": 2804,
      "cies": 2805,
      "Ġmess": 2806,
      "Ġ--": 2807,
      "Ġmedia": 2808,
      "Ġprep": 2809,
      "raft": 2810,
      "uth": 2811,
      "Ġtherefore": 2812,
      "Ġmother": 2813,
      "Ġdou": 2814,
      "ided": 2815,
      "Ġexpress": 2816,
      "where": 2817,
      "Ġhyd": 2818,
      "ĠMore": 2819,
      "ĠAg": 2820,
      "Ġcommit": 2821,
      "Ġeasily": 2822,
      "Ġcolon": 2823,
      "ha": 2824,
      "Ġprint": 2825,
      "Ġlooking": 2826,
      "oly": 2827,
      "Ġthus": 2828,
      "ĠCount": 2829,
      "Ġpolicy": 2830,
      "ĠJan": 2831,
      "Ġspeed": 2832,
      "Ġmagn": 2833,
      "ground": 2834,
      "haps": 2835,
      "Ġquite": 2836,
      "Ġvacc": 2837,
      "Ġago": 2838,
      "Ġcross": 2839,
      "Ġfinanc": 2840,
      "vention": 2841,
      "hel": 2842,
      "Ġveget": 2843,
      "ography": 2844,
      "Ġinstead": 2845,
      "ext": 2846,
      "Ġfa": 2847,
      "Ġdaily": 2848,
      "Ġtraditional": 2849,
      "Ġcit": 2850,
      "oes": 2851,
      "rs": 2852,
      "erson": 2853,
      "Ġinternational": 2854,
      "anks": 2855,
      "ties": 2856,
      "Ġstarted": 2857,
      "Ġsea": 2858,
      "ension": 2859,
      "Ġbab": 2860,
      "asons": 2861,
      "ington": 2862,
      "ĠYour": 2863,
      "Ġwall": 2864,
      "Ġconcent": 2865,
      "Ġallows": 2866,
      "ĠBo": 2867,
      "Ġdifference": 2868,
      "Ġprimary": 2869,
      "Ġdang": 2870,
      "Ġmental": 2871,
      "Ġful": 2872,
      "inks": 2873,
      "Ġtown": 2874,
      "Ġappropri": 2875,
      "Ġtheory": 2876,
      "rew": 2877,
      "Ġwarm": 2878,
      "Ġdetermine": 2879,
      "erg": 2880,
      "Ġcover": 2881,
      "ying": 2882,
      "Ġtree": 2883,
      "Ġcommunities": 2884,
      "na": 2885,
      "Ġadded": 2886,
      "itude": 2887,
      "Ġsou": 2888,
      "Ġsil": 2889,
      "ius": 2890,
      "rie": 2891,
      "Ġtools": 2892,
      "ĠPart": 2893,
      "uary": 2894,
      "ĠEduc": 2895,
      "ĠCenter": 2896,
      "Ġdiv": 2897,
      "Ġi": 2898,
      "Ġeth": 2899,
      "Ġfav": 2900,
      "ĠJu": 2901,
      "Ġthous": 2902,
      "Ġprogress": 2903,
      "ror": 2904,
      "Ġtur": 2905,
      "Ġleaders": 2906,
      "Ġperformance": 2907,
      "ancy": 2908,
      "Ġestim": 2909,
      "iency": 2910,
      "ĠMost": 2911,
      "ls": 2912,
      "Ġinvestig": 2913,
      "iforn": 2914,
      "www": 2915,
      "Ġpoints": 2916,
      "Ġachieve": 2917,
      "Ġsold": 2918,
      "Ġdiseases": 2919,
      "Ġcivil": 2920,
      "ĠEuropean": 2921,
      "Ġquickly": 2922,
      "ino": 2923,
      "ĠAug": 2924,
      "Ġbooks": 2925,
      "Ġinstit": 2926,
      "Ġmultiple": 2927,
      "Ġnation": 2928,
      "cell": 2929,
      "Ġinside": 2930,
      "Ġheld": 2931,
      "Ġlarger": 2932,
      "Ġunique": 2933,
      "overy": 2934,
      "Ġscientific": 2935,
      "ceed": 2936,
      "Ġoffer": 2937,
      "ĠCons": 2938,
      "Ġreflect": 2939,
      "Ġ40": 2940,
      "iot": 2941,
      "Ġcompanies": 2942,
      "Ġhumans": 2943,
      "Ġthird": 2944,
      "Ġeval": 2945,
      "Ġcapt": 2946,
      "Ġestablished": 2947,
      "ĠIndian": 2948,
      "rate": 2949,
      "ĠFrench": 2950,
      "Ġcompared": 2951,
      "Ġtend": 2952,
      "orks": 2953,
      "Ġunc": 2954,
      "ĠEl": 2955,
      "Ġspeak": 2956,
      "AN": 2957,
      "ellow": 2958,
      "Ġdecre": 2959,
      "Ġmilitary": 2960,
      "On": 2961,
      "Ġreve": 2962,
      "Ġdirectly": 2963,
      "Ġtrees": 2964,
      "Ġaltern": 2965,
      "Ġtiss": 2966,
      "Ġimmedi": 2967,
      "Ġrout": 2968,
      "Ġanswer": 2969,
      "Ġvit": 2970,
      "ifornia": 2971,
      "lied": 2972,
      "Ġdry": 2973,
      "elt": 2974,
      "Ġhighly": 2975,
      "ĠAc": 2976,
      "ounds": 2977,
      "undred": 2978,
      "ĠGl": 2979,
      "ille": 2980,
      "Ġbit": 2981,
      "Ġhor": 2982,
      "OR": 2983,
      "Ġdocument": 2984,
      "ift": 2985,
      "Ġsolar": 2986,
      "Ġbirth": 2987,
      "Ġeye": 2988,
      "ĠJes": 2989,
      "Ġfront": 2990,
      "Ġ,": 2991,
      "joy": 2992,
      "Ġsoon": 2993,
      "term": 2994,
      "Ġdrink": 2995,
      "Ġadditional": 2996,
      "ĠCom": 2997,
      "Ġbehind": 2998,
      "Ġsecurity": 2999,
      "Ġdemonstr": 3000,
      "Ġsevere": 3001,
      "Ġfoot": 3002,
      "Ġwent": 3003,
      "ON": 3004,
      "Ġgard": 3005,
      "Ġtri": 3006,
      "Ġalthough": 3007,
      "Ġhost": 3008,
      "ĠArt": 3009,
      "ĠInstitute": 3010,
      "Ġactive": 3011,
      "Ġnegative": 3012,
      "useum": 3013,
      "Ġinfection": 3014,
      "pril": 3015,
      "Ġfamilies": 3016,
      "Ġaspect": 3017,
      "Ġcritical": 3018,
      "iers": 3019,
      "ĠDepartment": 3020,
      "arr": 3021,
      "abetes": 3022,
      "Ġshall": 3023,
      "Ġaud": 3024,
      "gency": 3025,
      "nov": 3026,
      "Ġseems": 3027,
      "ĠSm": 3028,
      "Ġextra": 3029,
      "yr": 3030,
      "Ġproced": 3031,
      "Ġcentral": 3032,
      "Ġlabor": 3033,
      "vant": 3034,
      "Ġtowards": 3035,
      "pe": 3036,
      "ulate": 3037,
      "Ġacid": 3038,
      "Ġclin": 3039,
      "Ġexercise": 3040,
      "Ġprior": 3041,
      "Ġbroad": 3042,
      "ĠWest": 3043,
      "Ġuseful": 3044,
      "Ġbad": 3045,
      "cean": 3046,
      "Ġstay": 3047,
      "Ġhot": 3048,
      "iques": 3049,
      "den": 3050,
      "Ġleading": 3051,
      "ĠRec": 3052,
      "ĠOf": 3053,
      "Ġbeginning": 3054,
      "thern": 3055,
      "rig": 3056,
      "ĠCalifornia": 3057,
      "ĠAfrica": 3058,
      "itis": 3059,
      "Ġpurpose": 3060,
      "ĠMarch": 3061,
      "Ġobt": 3062,
      "Ġsupply": 3063,
      "Ġanaly": 3064,
      "ĠChild": 3065,
      "Ġhttp": 3066,
      "Ġtransport": 3067,
      "uries": 3068,
      "ilos": 3069,
      "ils": 3070,
      "Ġteaching": 3071,
      "Ġhar": 3072,
      "Ġwalk": 3073,
      "yond": 3074,
      "Ġcustom": 3075,
      "ĠNot": 3076,
      "lier": 3077,
      "Ġexpect": 3078,
      "21": 3079,
      "omet": 3080,
      "Ġvalues": 3081,
      "ĠUs": 3082,
      "formation": 3083,
      "oming": 3084,
      "Ġwhose": 3085,
      "Ġdoctor": 3086,
      "Ġfeatures": 3087,
      "Ġsituation": 3088,
      "ĠOther": 3089,
      "23": 3090,
      "Ġfram": 3091,
      "Ġaccur": 3092,
      "Ġvideo": 3093,
      "Ġaim": 3094,
      "Ġsection": 3095,
      "ĠChar": 3096,
      "aly": 3097,
      "hern": 3098,
      "olar": 3099,
      "Ġlimited": 3100,
      "ĠGerman": 3101,
      "____": 3102,
      "ĠOct": 3103,
      "Ġmount": 3104,
      "Ġhabit": 3105,
      "Ġ2010": 3106,
      "mar": 3107,
      "Ġstra": 3108,
      "Ġsearch": 3109,
      "Ġcard": 3110,
      "ĠAfrican": 3111,
      "ĠRuss": 3112,
      "ĠAlthough": 3113,
      "Ġsoftware": 3114,
      "One": 3115,
      "Ġhands": 3116,
      "iter": 3117,
      "Ġones": 3118,
      "âĢ¢": 3119,
      "isms": 3120,
      "Ġelements": 3121,
      "lation": 3122,
      "Ġquant": 3123,
      "oring": 3124,
      "iber": 3125,
      "Ġdecl": 3126,
      "uman": 3127,
      "Ġcontribut": 3128,
      "So": 3129,
      "ĠInternational": 3130,
      "ĠHistory": 3131,
      "Ġbase": 3132,
      "Ġlost": 3133,
      "ĠHer": 3134,
      "Ġpack": 3135,
      "Ġmom": 3136,
      "Ġ2012": 3137,
      "IC": 3138,
      "Ġancient": 3139,
      "lection": 3140,
      "inct": 3141,
      "Ġminutes": 3142,
      "Ġdark": 3143,
      "He": 3144,
      "Ġprotein": 3145,
      "40": 3146,
      "Ġcontains": 3147,
      "rition": 3148,
      "Ġinterp": 3149,
      "come": 3150,
      "rote": 3151,
      "Ġrequires": 3152,
      "Ġcapital": 3153,
      "ĠMus": 3154,
      "Ġcred": 3155,
      "Ġhundred": 3156,
      "Ġelse": 3157,
      "ologies": 3158,
      "Ġnucle": 3159,
      "Ġexact": 3160,
      "ĠJune": 3161,
      "coh": 3162,
      "And": 3163,
      "Ġthinking": 3164,
      "Ġwrite": 3165,
      "Ġfight": 3166,
      "Ġnews": 3167,
      "âĢĿ.": 3168,
      "Ġenjoy": 3169,
      "ĠSch": 3170,
      "ĠHere": 3171,
      "Ġlength": 3172,
      "fort": 3173,
      "ĠGree": 3174,
      "Ġfast": 3175,
      "rogen": 3176,
      "Ġblock": 3177,
      "Ġstri": 3178,
      "Ġstrateg": 3179,
      "att": 3180,
      "Ġbrought": 3181,
      "ĠReg": 3182,
      "Ġjo": 3183,
      "uk": 3184,
      "Ġreceived": 3185,
      "Ġworkers": 3186,
      "Ġinfluence": 3187,
      "Ġang": 3188,
      "Ġgot": 3189,
      "Ġagricult": 3190,
      "Ġrates": 3191,
      "ĠAnt": 3192,
      "ĠTra": 3193,
      "gn": 3194,
      "Ġprotection": 3195,
      "wise": 3196,
      "imin": 3197,
      "Ġsymb": 3198,
      "itch": 3199,
      "hest": 3200,
      "ĠFirst": 3201,
      "Ġprivate": 3202,
      "ription": 3203,
      "Ġapplication": 3204,
      "Ġfinancial": 3205,
      "Ġsustain": 3206,
      "hens": 3207,
      "ĠSept": 3208,
      "Ġadminist": 3209,
      "Ġleaves": 3210,
      "Ġwaste": 3211,
      "ĠKe": 3212,
      "Ġimages": 3213,
      "Ġsn": 3214,
      "Ġ2011": 3215,
      "Ġdescribed": 3216,
      "Ġdisp": 3217,
      "Ġadults": 3218,
      "used": 3219,
      "Ġexcept": 3220,
      "istry": 3221,
      "estic": 3222,
      "pper": 3223,
      "ran": 3224,
      "izations": 3225,
      "Ġjud": 3226,
      "orthern": 3227,
      "equ": 3228,
      "ields": 3229,
      "ĠMon": 3230,
      "Ġdemand": 3231,
      "cks": 3232,
      "Ġcosts": 3233,
      "Ġcarry": 3234,
      "Ġdecision": 3235,
      "ĠTw": 3236,
      "Ġgame": 3237,
      "Ġwebsite": 3238,
      "Ġcapac": 3239,
      "cial": 3240,
      "Ġprojects": 3241,
      "Ġlines": 3242,
      "ipment": 3243,
      "Ġgoal": 3244,
      "ĠAugust": 3245,
      "Ġlargest": 3246,
      "ĠJesus": 3247,
      "lim": 3248,
      "ĠFrom": 3249,
      "ĠRiver": 3250,
      "Ġweeks": 3251,
      "Ġnearly": 3252,
      "Ġord": 3253,
      "Ġagree": 3254,
      "Ġwa": 3255,
      "Ġplaces": 3256,
      "Ġbecomes": 3257,
      "see": 3258,
      "Ġdevices": 3259,
      "Ġlocated": 3260,
      "Ġnorth": 3261,
      "Ġimportance": 3262,
      "vest": 3263,
      "IV": 3264,
      "Ġmill": 3265,
      "con": 3266,
      "60": 3267,
      "Ġseason": 3268,
      "ĠSw": 3269,
      "Ġmemory": 3270,
      "ĠBar": 3271,
      "Ġmention": 3272,
      "Ġlaws": 3273,
      "Ġult": 3274,
      "ĠCor": 3275,
      "ulated": 3276,
      "Ġadop": 3277,
      "Ġreach": 3278,
      "Ġsolution": 3279,
      "Ġstru": 3280,
      "Ġbeaut": 3281,
      "bit": 3282,
      "Ġtypically": 3283,
      "sect": 3284,
      "Ġveh": 3285,
      "iles": 3286,
      "ĠServ": 3287,
      "ĠWash": 3288,
      "80": 3289,
      "AC": 3290,
      "ibrary": 3291,
      "EN": 3292,
      "Ġ21": 3293,
      "rag": 3294,
      "Ġprocesses": 3295,
      "ĠDav": 3296,
      "Ġx": 3297,
      "Ġreligious": 3298,
      "ĠApril": 3299,
      "Ġrare": 3300,
      "mission": 3301,
      "Ġappropriate": 3302,
      "idents": 3303,
      "Ġborn": 3304,
      "Ġestablish": 3305,
      "Ġtests": 3306,
      "imal": 3307,
      "odies": 3308,
      "Ġremain": 3309,
      "Ġep": 3310,
      "year": 3311,
      "Ġtold": 3312,
      "Ġadj": 3313,
      "Ġefforts": 3314,
      "Ġfit": 3315,
      "Ġsurround": 3316,
      "rael": 3317,
      "back": 3318,
      "ĠAmericans": 3319,
      "ĠMy": 3320,
      "Ġtable": 3321,
      "ĠJuly": 3322,
      "Ġcrop": 3323,
      "'re": 3324,
      "Ġbacteria": 3325,
      "Ġremains": 3326,
      "Ġproperty": 3327,
      "inese": 3328,
      "Ġcommunication": 3329,
      "Ġmix": 3330,
      "med": 3331,
      "Ġhimself": 3332,
      "ĠPress": 3333,
      "Ġdeal": 3334,
      "izes": 3335,
      "ĠChristian": 3336,
      "Ġfriends": 3337,
      "Ġfather": 3338,
      "entially": 3339,
      "Ġsummer": 3340,
      "Ġinstall": 3341,
      "Ġrespond": 3342,
      "iece": 3343,
      "Ġcreating": 3344,
      "Ġegg": 3345,
      "Ġsites": 3346,
      "Ġcommand": 3347,
      "Ġcool": 3348,
      "Ġbasis": 3349,
      "Ġcultural": 3350,
      "oke": 3351,
      "Ġsaw": 3352,
      "aid": 3353,
      "ĠDay": 3354,
      "Ġ2013": 3355,
      "24": 3356,
      "Ġtechniques": 3357,
      "Ġadapt": 3358,
      "oud": 3359,
      "ĠEngland": 3360,
      "Ġrapid": 3361,
      "ĠAssoci": 3362,
      "ED": 3363,
      "199": 3364,
      "Ġgives": 3365,
      "life": 3366,
      "Ġdead": 3367,
      "ype": 3368,
      "Ġeyes": 3369,
      "Ġsouth": 3370,
      "Ġmole": 3371,
      "Ġcenter": 3372,
      "eal": 3373,
      "itect": 3374,
      "Ġadvant": 3375,
      "ari": 3376,
      "ipl": 3377,
      "uous": 3378,
      "Ġtesting": 3379,
      "ĠMc": 3380,
      "ĠCanada": 3381,
      "Ġteacher": 3382,
      "Ġdied": 3383,
      "resh": 3384,
      "Ġeating": 3385,
      "Ġapplications": 3386,
      "arian": 3387,
      "atur": 3388,
      "king": 3389,
      "Ġweb": 3390,
      "cles": 3391,
      "Ġanything": 3392,
      "Ġeverything": 3393,
      "Ġhope": 3394,
      "Ġvict": 3395,
      "Ġmiles": 3396,
      "Ġcitiz": 3397,
      "ĠProg": 3398,
      "ĠPresident": 3399,
      "Ġbehavi": 3400,
      "cohol": 3401,
      "Ġtherapy": 3402,
      "ama": 3403,
      "uments": 3404,
      "Ġconstruction": 3405,
      "ĠCong": 3406,
      "Ġfinal": 3407,
      "Ġpan": 3408,
      "iar": 3409,
      "ding": 3410,
      "ellig": 3411,
      "Ġder": 3412,
      "Ġroom": 3413,
      "Ġresponsible": 3414,
      "Ġbreat": 3415,
      "water": 3416,
      "ira": 3417,
      "aught": 3418,
      "Ġfuel": 3419,
      "Ġcele": 3420,
      "Ġcode": 3421,
      "Ġautom": 3422,
      "ĠWilliam": 3423,
      "Ġson": 3424,
      "Ġmonitor": 3425,
      "Ġcou": 3426,
      "head": 3427,
      "Ġteeth": 3428,
      "cember": 3429,
      "Ġcold": 3430,
      "Ġnothing": 3431,
      "ford": 3432,
      "aul": 3433,
      "Ġcoast": 3434,
      "ĠGovern": 3435,
      "Ġimag": 3436,
      "Ġtrade": 3437,
      "ondon": 3438,
      "Ġbenefit": 3439,
      "Ġsequ": 3440,
      "itable": 3441,
      "Ġstage": 3442,
      "Ġcalcul": 3443,
      "Ġreasons": 3444,
      "Ġdigital": 3445,
      "ĠEc": 3446,
      "Ġexpected": 3447,
      "Ġpractices": 3448,
      "Ġgradu": 3449,
      "ĠEducation": 3450,
      "Ġdepend": 3451,
      "At": 3452,
      "Ġhous": 3453,
      "Ġice": 3454,
      "Ġbott": 3455,
      "Ġrecently": 3456,
      "Ġspirit": 3457,
      "Ġscreen": 3458,
      "These": 3459,
      "illing": 3460,
      "Ġcam": 3461,
      "ĠPark": 3462,
      "ĠLear": 3463,
      "Ġfollowed": 3464,
      "Ġdevice": 3465,
      "Ġking": 3466,
      "ocr": 3467,
      "exic": 3468,
      "Ġconsequ": 3469,
      "ham": 3470,
      "Ġreceive": 3471,
      "Ġ:": 3472,
      "Ġsugar": 3473,
      "Ġexamples": 3474,
      "bur": 3475,
      "Ġmiddle": 3476,
      "Ġequipment": 3477,
      "ony": 3478,
      "Ġbeyond": 3479,
      "sec": 3480,
      "ogen": 3481,
      "strial": 3482,
      "Ġten": 3483,
      "IT": 3484,
      "Ġolder": 3485,
      "Ġ2009": 3486,
      "Ġpen": 3487,
      "mosp": 3488,
      "Ġasked": 3489,
      "Ġaffected": 3490,
      "Ġbul": 3491,
      "ought": 3492,
      "Ġmid": 3493,
      "Ġobjects": 3494,
      "ĠGreat": 3495,
      "Ġforces": 3496,
      "Ġund": 3497,
      "Ġchoose": 3498,
      "Ġanti": 3499,
      "Ġcommunic": 3500,
      "Ġproviding": 3501,
      "ĠCity": 3502,
      "Ġconnect": 3503,
      "unch": 3504,
      "ĠWashington": 3505,
      "Ġlegal": 3506,
      "ula": 3507,
      "Ġmodels": 3508,
      "Ġcra": 3509,
      "Ġfederal": 3510,
      "Ġprofessional": 3511,
      "Ġfear": 3512,
      "Ġconflic": 3513,
      "lamm": 3514,
      "ĠIsrael": 3515,
      "ĠOur": 3516,
      "ĠJournal": 3517,
      "ribute": 3518,
      "ĠRet": 3519,
      "apter": 3520,
      "Ġwoman": 3521,
      "Ġopportunity": 3522,
      "Ġrain": 3523,
      "rees": 3524,
      "Ġsmaller": 3525,
      "ĠChurch": 3526,
      "ĠAccording": 3527,
      "Ġinsp": 3528,
      "time": 3529,
      "ev": 3530,
      "Ġhyp": 3531,
      "Ġyourself": 3532,
      "Ġcontroll": 3533,
      "tery": 3534,
      "Ġexposure": 3535,
      "Ġweather": 3536,
      "Ġeveryone": 3537,
      "ĠTechn": 3538,
      "ĠFeb": 3539,
      "ests": 3540,
      "ĠEven": 3541,
      "Ġeconomy": 3542,
      "Ġrock": 3543,
      "ĠJanuary": 3544,
      "Ġlocation": 3545,
      "Ġconstit": 3546,
      "iples": 3547,
      "book": 3548,
      "ĠInc": 3549,
      "ovember": 3550,
      "omb": 3551,
      "Ġtrying": 3552,
      "airs": 3553,
      "Ġsett": 3554,
      "ĠSeptember": 3555,
      "ocks": 3556,
      "Ġrecommend": 3557,
      "ĠChinese": 3558,
      "Ġalone": 3559,
      "Ġcru": 3560,
      "Ġ2008": 3561,
      "Ġdegree": 3562,
      "Ġwrote": 3563,
      "Ġoccurs": 3564,
      "Ġstandards": 3565,
      "vert": 3566,
      "Ġdate": 3567,
      "Ġcurrently": 3568,
      "Ġinstru": 3569,
      "oe": 3570,
      "Ġscale": 3571,
      "Ġwon": 3572,
      "PA": 3573,
      "Ġorganization": 3574,
      "can": 3575,
      "anish": 3576,
      "Ġtit": 3577,
      "Ġcompletely": 3578,
      "Ġstrength": 3579,
      "men": 3580,
      "ica": 3581,
      "Ġbeg": 3582,
      "Ġinteresting": 3583,
      "Ġshape": 3584,
      "lin": 3585,
      "Ġpet": 3586,
      "Ġguid": 3587,
      "Ġoverall": 3588,
      "su": 3589,
      "ĠOctober": 3590,
      "Ġrules": 3591,
      "Ġrise": 3592,
      "ĠDevelop": 3593,
      "Ġbirds": 3594,
      "Ġgoes": 3595,
      "Ġusers": 3596,
      "Ġpurch": 3597,
      "Ġswe": 3598,
      "ĠDis": 3599,
      "Ġpregn": 3600,
      "Ġvisual": 3601,
      "Ġsuccessful": 3602,
      "load": 3603,
      "Ġconstant": 3604,
      "Ġearlier": 3605,
      "Ġeffort": 3606,
      "mitted": 3607,
      "ĠCommun": 3608,
      "edia": 3609,
      "ospital": 3610,
      "Ġnamed": 3611,
      "Ġdiabetes": 3612,
      "Ġcollection": 3613,
      "Ġcommonly": 3614,
      "ĠThen": 3615,
      "ĠSim": 3616,
      "Ġfile": 3617,
      "Ġmeasures": 3618,
      "Ġleave": 3619,
      "Ġvia": 3620,
      "Ġwinter": 3621,
      "Ġhon": 3622,
      "ĠPol": 3623,
      "ĠSystem": 3624,
      "Ġdifferences": 3625,
      "Ġdrugs": 3626,
      "enge": 3627,
      "oday": 3628,
      "Ġ23": 3629,
      "Ġenh": 3630,
      "ĠRed": 3631,
      "ĠIS": 3632,
      "Ġplanet": 3633,
      "Ġisn": 3634,
      "Ġformer": 3635,
      "aur": 3636,
      "ĠMexic": 3637,
      ");": 3638,
      "Ex": 3639,
      "ĠTrans": 3640,
      "Ġperfect": 3641,
      "Ġapprox": 3642,
      "Ġpredict": 3643,
      "Ġrob": 3644,
      "Ġplaced": 3645,
      "Ġmaintain": 3646,
      "Ġmember": 3647,
      "Ġgenetic": 3648,
      "Ġuser": 3649,
      "While": 3650,
      "Ġdestro": 3651,
      "Ġdiscovered": 3652,
      "uff": 3653,
      "Ġvirt": 3654,
      "ara": 3655,
      "ĠVir": 3656,
      "lam": 3657,
      "Ġcateg": 3658,
      "ĠSur": 3659,
      "rec": 3660,
      "Ġsteps": 3661,
      "Ġallowed": 3662,
      "Ġ60": 3663,
      "With": 3664,
      "Ġneigh": 3665,
      "wide": 3666,
      "Ġcommerc": 3667,
      "ĠCounty": 3668,
      "ingu": 3669,
      "Ġidentified": 3670,
      "reet": 3671,
      "Ġbillion": 3672,
      "off": 3673,
      "ĠHigh": 3674,
      "Ġelectr": 3675,
      "Ġpowerful": 3676,
      "ibly": 3677,
      "27": 3678,
      "Ġenter": 3679,
      "Ġcoming": 3680,
      "Ġpoly": 3681,
      "ĠDuring": 3682,
      "Ġreduced": 3683,
      "Ġexec": 3684,
      "ĠLondon": 3685,
      "ky": 3686,
      "Ġmax": 3687,
      "ensity": 3688,
      "Ġwond": 3689,
      "Ġacqu": 3690,
      "Ġrule": 3691,
      "Ġroad": 3692,
      "Ġcontinued": 3693,
      "ĠBi": 3694,
      "ĠDNA": 3695,
      "bre": 3696,
      "ĠDecember": 3697,
      "xi": 3698,
      "Ġmis": 3699,
      "edom": 3700,
      "ĠRead": 3701,
      "ĠBlack": 3702,
      "Ġapplied": 3703,
      "Ġeight": 3704,
      "Ġteach": 3705,
      "Ġdisplay": 3706,
      "ĠEast": 3707,
      "ĠInst": 3708,
      "Ġcontext": 3709,
      "ords": 3710,
      "Ġgold": 3711,
      "Ġball": 3712,
      "Ġhistorical": 3713,
      "Ġjoint": 3714,
      "Ġformed": 3715,
      "eech": 3716,
      "more": 3717,
      "Ġfruit": 3718,
      "irection": 3719,
      "enty": 3720,
      "Ġrich": 3721,
      "Ġoccup": 3722,
      "Ġsect": 3723,
      "Ġmob": 3724,
      "ste": 3725,
      "ĠMod": 3726,
      "Ġmiss": 3727,
      "Ġchurch": 3728,
      "Ġtox": 3729,
      "ĠBr": 3730,
      "Ġtrack": 3731,
      "Ġpow": 3732,
      "ĠLaw": 3733,
      "Ġsch": 3734,
      "Ġversion": 3735,
      "Ġsigns": 3736,
      "ocol": 3737,
      "Ġgave": 3738,
      "aters": 3739,
      "ĠVal": 3740,
      "ĠSan": 3741,
      "Ġ193": 3742,
      "Ġstatus": 3743,
      "Ġmajority": 3744,
      "26": 3745,
      "Ġden": 3746,
      "AL": 3747,
      "iable": 3748,
      "Ġsymbol": 3749,
      "udd": 3750,
      "Ġcourt": 3751,
      "Ġbra": 3752,
      "ruary": 3753,
      "alt": 3754,
      "29": 3755,
      "cious": 3756,
      "bl": 3757,
      "Ġperhaps": 3758,
      "aint": 3759,
      "que": 3760,
      "ĠSince": 3761,
      "Ġshowed": 3762,
      "Ġpresence": 3763,
      "Ġfair": 3764,
      "Ġbelief": 3765,
      "Ġcompar": 3766,
      "Ġmouth": 3767,
      "Ġ2007": 3768,
      "Ġcook": 3769,
      "known": 3770,
      "rab": 3771,
      "Ġpatterns": 3772,
      "Ġremember": 3773,
      "oration": 3774,
      "Ġsitu": 3775,
      "ĠCour": 3776,
      "Ġmachine": 3777,
      "ament": 3778,
      "Ġlimit": 3779,
      "Ġacad": 3780,
      "Ġphilos": 3781,
      "Ġnote": 3782,
      "hemat": 3783,
      "Some": 3784,
      "encies": 3785,
      "ĠAlso": 3786,
      "ĠPat": 3787,
      "Ġnames": 3788,
      "aled": 3789,
      "Ġdidn": 3790,
      "Ġactions": 3791,
      "ĠRoman": 3792,
      "Ġcry": 3793,
      "Ġmig": 3794,
      "Ġfactor": 3795,
      "Ġvill": 3796,
      "gery": 3797,
      "Ġasse": 3798,
      "ĠNow": 3799,
      "ĠCoun": 3800,
      "Ġfemale": 3801,
      "Ġemissions": 3802,
      "Ġcapacity": 3803,
      "70": 3804,
      "Ġatmosp": 3805,
      "aste": 3806,
      "Ġchoice": 3807,
      "ĠBecause": 3808,
      "Ġgir": 3809,
      "Ġillness": 3810,
      "co": 3811,
      "Ġfully": 3812,
      "Ġcities": 3813,
      "orge": 3814,
      "ĠWater": 3815,
      "Ġimmune": 3816,
      "Ġmoment": 3817,
      "ĠAre": 3818,
      "Ġassign": 3819,
      "Ġstories": 3820,
      "ĠArch": 3821,
      "ĠNovember": 3822,
      "emy": 3823,
      "Ġrat": 3824,
      "Ġchanged": 3825,
      "Ġillust": 3826,
      "Ġproperties": 3827,
      "osy": 3828,
      "phas": 3829,
      "Ġassist": 3830,
      "iful": 3831,
      "related": 3832,
      "Ġincreases": 3833,
      "Ġpeace": 3834,
      "gypt": 3835,
      "Ġstim": 3836,
      "28": 3837,
      "Ġrelatively": 3838,
      "Ġincor": 3839,
      "Ġnutri": 3840,
      "Ġ195": 3841,
      "Ġemp": 3842,
      "By": 3843,
      "Ġworth": 3844,
      "Ġ+": 3845,
      "ĠGeneral": 3846,
      "craft": 3847,
      "Ġdat": 3848,
      "Ġbaby": 3849,
      "Ġtou": 3850,
      "Ġappears": 3851,
      "ĠHouse": 3852,
      "Ġstrugg": 3853,
      "ĠFin": 3854,
      "ternal": 3855,
      "Ġevolution": 3856,
      "Ġpromot": 3857,
      "Ġefficient": 3858,
      "Ġmoving": 3859,
      "ĠPeople": 3860,
      "à¤": 3861,
      "Ġprice": 3862,
      "Ġpiece": 3863,
      "inated": 3864,
      "Ġalcohol": 3865,
      "iring": 3866,
      "Ġtissue": 3867,
      "ĠSociety": 3868,
      "Ġunit": 3869,
      "Ġtask": 3870,
      "odes": 3871,
      "resp": 3872,
      "ĠConf": 3873,
      "Ġconstruct": 3874,
      "ees": 3875,
      "Ġstaff": 3876,
      "Ġfunctions": 3877,
      "ĠUnion": 3878,
      "Ġworked": 3879,
      "Ġexisting": 3880,
      "Ġelement": 3881,
      "ĠJewish": 3882,
      "iate": 3883,
      "ĠProt": 3884,
      "Ġast": 3885,
      "atin": 3886,
      "II": 3887,
      "iences": 3888,
      "Ġcomponents": 3889,
      "Ġforward": 3890,
      "Ġgiving": 3891,
      "ĠJust": 3892,
      "amb": 3893,
      "Ġfresh": 3894,
      "Ġeducational": 3895,
      "ession": 3896,
      "Ġtele": 3897,
      "Ġopportunities": 3898,
      "Ġmut": 3899,
      "Ġpp": 3900,
      "Ġeffic": 3901,
      "rief": 3902,
      "Ġchallenges": 3903,
      "Ġhair": 3904,
      "abilities": 3905,
      "Ġroot": 3906,
      "Ġsusp": 3907,
      "aign": 3908,
      "Ġconvers": 3909,
      "RE": 3910,
      "Ġexpand": 3911,
      "Ġbox": 3912,
      "house": 3913,
      "Ġvo": 3914,
      "ĠAustralia": 3915,
      "Ġdistance": 3916,
      "Ġinstance": 3917,
      "ĠRo": 3918,
      "Ġoffers": 3919,
      "ĠUse": 3920,
      "Ġarchitect": 3921,
      "ĠProf": 3922,
      "Ġwid": 3923,
      "Ġrepe": 3924,
      "Ġtransfer": 3925,
      "ĠGermany": 3926,
      "rupt": 3927,
      "force": 3928,
      "\",": 3929,
      "Ġstar": 3930,
      "part": 3931,
      "Ġriver": 3932,
      "Ġpicture": 3933,
      "HE": 3934,
      "Pro": 3935,
      "Ġ28": 3936,
      "ero": 3937,
      "Ġthousands": 3938,
      "Ġequal": 3939,
      "ĠFrance": 3940,
      "Ġâ": 3941,
      "Ġinnov": 3942,
      "rick": 3943,
      "iny": 3944,
      "Ġantib": 3945,
      "Ġ26": 3946,
      "Ġgarden": 3947,
      "Ġincome": 3948,
      "Ġmission": 3949,
      "Ġdetect": 3950,
      "Ġmal": 3951,
      "Ġbalance": 3952,
      "Ġreports": 3953,
      "Ġing": 3954,
      "era": 3955,
      "Ġhuge": 3956,
      "Ġbelieved": 3957,
      "rehens": 3958,
      "Ġevalu": 3959,
      "Ġregions": 3960,
      "ogle": 3961,
      "Ġrunning": 3962,
      "Ġdirection": 3963,
      "Ġconsumption": 3964,
      "Ġforeign": 3965,
      "ĠUK": 3966,
      "Ġfriend": 3967,
      "ĠCongress": 3968,
      "care": 3969,
      "Ġwrong": 3970,
      "Ġobserved": 3971,
      "Ġassum": 3972,
      "icip": 3973,
      "Ad": 3974,
      "Ġblue": 3975,
      "Ġstyle": 3976,
      "Ġabsor": 3977,
      "Ġweak": 3978,
      "ald": 3979,
      "eding": 3980,
      "Ġfamous": 3981,
      "ĠEnvironment": 3982,
      "Ġplanning": 3983,
      "Ġbreast": 3984,
      "ĠAssociation": 3985,
      "asion": 3986,
      "Ġoptions": 3987,
      "Ġinstruct": 3988,
      "Ġwatch": 3989,
      "Ġfindings": 3990,
      "Ġqual": 3991,
      "Ġsurvey": 3992,
      "rome": 3993,
      "Ġclassroom": 3994,
      "Ġnative": 3995,
      "ĠPhil": 3996,
      "Ġguide": 3997,
      "Ġdefined": 3998,
      "pris": 3999,
      "Ġmap": 4000,
      "Ġpassed": 4001,
      "Ġchance": 4002,
      "Ġresistance": 4003,
      "Ġexperiences": 4004,
      "Ġcontract": 4005,
      "âĢĿ,": 4006,
      "che": 4007,
      "Ġcollabor": 4008,
      "Ġoffice": 4009,
      "Ġexplain": 4010,
      "orage": 4011,
      "Ġ22": 4012,
      "ifically": 4013,
      "Ġinsect": 4014,
      "Ġdetails": 4015,
      "ĠEgypt": 4016,
      "Ġ2000": 4017,
      "omas": 4018,
      "ĠTheir": 4019,
      "Ġstrategies": 4020,
      "Ġplastic": 4021,
      "Ġgain": 4022,
      "Ġbound": 4023,
      "ĠEach": 4024,
      "ST": 4025,
      "hors": 4026,
      "Ġdisorder": 4027,
      "Ġsuggests": 4028,
      "Ġiron": 4029,
      "Ġsac": 4030,
      "ĠFl": 4031,
      "Ġvision": 4032,
      "Ġfeature": 4033,
      "ĠFebruary": 4034,
      "ygen": 4035,
      "Ġattract": 4036,
      "Ġfavor": 4037,
      "SA": 4038,
      "Ġmale": 4039,
      "ses": 4040,
      "Ġexperim": 4041,
      "Ġeventually": 4042,
      "Ġcitizens": 4043,
      "pped": 4044,
      "Ġsignificantly": 4045,
      "Ġmuscle": 4046,
      "Ġtreated": 4047,
      "Ġ27": 4048,
      "ĠAng": 4049,
      "Ġspring": 4050,
      "Ġgoals": 4051,
      "ographic": 4052,
      "Ġ2015": 4053,
      "DA": 4054,
      "Ġcommercial": 4055,
      "Ġextremely": 4056,
      "Ġdivid": 4057,
      "Ġexhib": 4058,
      "igen": 4059,
      "Ġseparate": 4060,
      "Ġfix": 4061,
      "Ġcarried": 4062,
      "Ġtechnologies": 4063,
      "Ġfert": 4064,
      "Ġapply": 4065,
      "Ġseven": 4066,
      "ĠGreen": 4067,
      "Ġcelebr": 4068,
      "Un": 4069,
      "Ġlearned": 4070,
      "uild": 4071,
      "rieved": 4072,
      "Ġ2014": 4073,
      "Ġhappen": 4074,
      "iding": 4075,
      "Ġstructures": 4076,
      "ching": 4077,
      "Is": 4078,
      "ĠLet": 4079,
      "Ġclinical": 4080,
      "Ġorganizations": 4081,
      "Ġexplore": 4082,
      "ĠLord": 4083,
      "xiety": 4084,
      "Ġeasier": 4085,
      "ĠMedic": 4086,
      "ĠPal": 4087,
      "Ġplans": 4088,
      "Ġimmediately": 4089,
      "Ġrequirements": 4090,
      "All": 4091,
      "yd": 4092,
      "ĠColle": 4093,
      "Ġheavy": 4094,
      "Ġglass": 4095,
      "Ġhighest": 4096,
      "Ġbank": 4097,
      "Ġexcess": 4098,
      "ĠThus": 4099,
      "Ġitems": 4100,
      "Ġfigure": 4101,
      "ĠWestern": 4102,
      "Ġpresented": 4103,
      "bed": 4104,
      "cont": 4105,
      "Ġspect": 4106,
      "Ġphen": 4107,
      "Be": 4108,
      "eces": 4109,
      "90": 4110,
      "Ġ2006": 4111,
      "ĠCur": 4112,
      "oma": 4113,
      "Ġpick": 4114,
      "ĠBra": 4115,
      "Ġmilk": 4116,
      "Ġutil": 4117,
      "ĠPublic": 4118,
      "Ġsoci": 4119,
      "Ġmo": 4120,
      "nes": 4121,
      "Ġreality": 4122,
      "uit": 4123,
      "ĠInternet": 4124,
      "Ġdecades": 4125,
      "ĠMary": 4126,
      "Ġgeneration": 4127,
      "Ġboard": 4128,
      "Ġsave": 4129,
      "Ġliqu": 4130,
      "Ġintellig": 4131,
      "Ġtruth": 4132,
      "wards": 4133,
      "ube": 4134,
      "Ġhom": 4135,
      "ophy": 4136,
      "ĠInter": 4137,
      "Ġdepression": 4138,
      "isation": 4139,
      "Ġvary": 4140,
      "Ġindustrial": 4141,
      "ken": 4142,
      "iance": 4143,
      "EC": 4144,
      "asks": 4145,
      "Ġrot": 4146,
      "Ġnovel": 4147,
      "ĠAut": 4148,
      "ĠDon": 4149,
      "ulum": 4150,
      "Ġbecoming": 4151,
      "ĠProgram": 4152,
      "After": 4153,
      "iant": 4154,
      "ares": 4155,
      "ĠOver": 4156,
      "Ġconducted": 4157,
      "Ġurban": 4158,
      "cast": 4159,
      "Ġbone": 4160,
      "Ġjournal": 4161,
      "They": 4162,
      "enth": 4163,
      "char": 4164,
      "Ġperspect": 4165,
      "zz": 4166,
      "change": 4167,
      "ĠMor": 4168,
      "Ġtopic": 4169,
      "Ġemphas": 4170,
      "Ġneu": 4171,
      "ĠUN": 4172,
      "Ġmer": 4173,
      "ĠChe": 4174,
      "Ġmedicine": 4175,
      "tee": 4176,
      "Ġfaith": 4177,
      "Ġagg": 4178,
      "ologist": 4179,
      "Ġapproximately": 4180,
      "Ġdestroy": 4181,
      "ulf": 4182,
      "ĠSpec": 4183,
      "Ġserve": 4184,
      "ĠDes": 4185,
      "Ġresource": 4186,
      "Ġnuclear": 4187,
      "ĠCouncil": 4188,
      "Ġintroduced": 4189,
      "Ġbodies": 4190,
      "Ġcand": 4191,
      "Ġletter": 4192,
      "ĠJames": 4193,
      "Ġlegis": 4194,
      "ĠRev": 4195,
      "Ġremove": 4196,
      "Ġslight": 4197,
      "Ġalternative": 4198,
      "Ġ2016": 4199,
      "ĠWeb": 4200,
      "Ġmetal": 4201,
      "Ġdistribution": 4202,
      "Ġbed": 4203,
      "uses": 4204,
      "Ġdyn": 4205,
      "met": 4206,
      "Ġperformed": 4207,
      "ĠSee": 4208,
      "ingly": 4209,
      "plications": 4210,
      "Ġactual": 4211,
      "Ġdecisions": 4212,
      "do": 4213,
      "Ġsexual": 4214,
      "Ġmoved": 4215,
      "ĠVol": 4216,
      "Ġelectricity": 4217,
      "antic": 4218,
      "Ġrelease": 4219,
      "Ġiniti": 4220,
      "Ġstream": 4221,
      "ĠMich": 4222,
      "Ġrecords": 4223,
      "Ġchallenge": 4224,
      "Ġfrequently": 4225,
      "ĠMat": 4226,
      "apers": 4227,
      "Ġign": 4228,
      "Ġhousehold": 4229,
      "Ġpul": 4230,
      "Ġmag": 4231,
      "Ġtrust": 4232,
      "ĠJapanese": 4233,
      "Ġcycle": 4234,
      "Ġfig": 4235,
      "ĠPlan": 4236,
      "Ġspeech": 4237,
      "ĠDavid": 4238,
      "ructure": 4239,
      "Ġopin": 4240,
      "Ġconnected": 4241,
      "35": 4242,
      "Â°": 4243,
      "Ġtemperatures": 4244,
      "Ġves": 4245,
      "Ġgraph": 4246,
      "AM": 4247,
      "Ġaspects": 4248,
      "Ġpopulations": 4249,
      "Ġdisorders": 4250,
      "erate": 4251,
      "Ġtransl": 4252,
      "ĠDec": 4253,
      "Ġreference": 4254,
      "Ġkid": 4255,
      "Ġcontrast": 4256,
      "Ġgene": 4257,
      "Ġpresident": 4258,
      "Ġrecommended": 4259,
      "Ġnotes": 4260,
      "Ġestimated": 4261,
      "Ġstore": 4262,
      "ĠChildren": 4263,
      "Ġdesp": 4264,
      "Ġfilm": 4265,
      "ias": 4266,
      "Ġparty": 4267,
      "Ġesc": 4268,
      "Ġ80": 4269,
      "Ġcausing": 4270,
      "bal": 4271,
      "Ġdiscussion": 4272,
      "Ġreleased": 4273,
      "ĠTur": 4274,
      "ida": 4275,
      "othes": 4276,
      "Ġhomes": 4277,
      "Ġchronic": 4278,
      "tical": 4279,
      "Ġcombination": 4280,
      "ĠNet": 4281,
      "ĠFound": 4282,
      "Ġbuy": 4283,
      "Ġpi": 4284,
      "Ġlived": 4285,
      "Ġdoub": 4286,
      "Ġcompl": 4287,
      "Ġwidely": 4288,
      "Ġclearly": 4289,
      "Ġdrive": 4290,
      "Ġnutrition": 4291,
      "ously": 4292,
      "Ġbuildings": 4293,
      "Ġexperiment": 4294,
      "Ġfields": 4295,
      "imens": 4296,
      "Ġdogs": 4297,
      "unction": 4298,
      "Ġgets": 4299,
      "Ġoperations": 4300,
      "Ġliterature": 4301,
      "Ġbottom": 4302,
      "Ġsetting": 4303,
      "Ġindependent": 4304,
      "ĠDevelopment": 4305,
      "ĠCollege": 4306,
      "Ġnumerous": 4307,
      "order": 4308,
      "Ġviolence": 4309,
      "ped": 4310,
      "raw": 4311,
      "ressive": 4312,
      "Ġanyone": 4313,
      "porary": 4314,
      "Ġkilled": 4315,
      "roph": 4316,
      "clus": 4317,
      "Ġwanted": 4318,
      "ET": 4319,
      "Ġemail": 4320,
      "ĠHuman": 4321,
      "Ġ2005": 4322,
      "ĠWhy": 4323,
      "Ġflood": 4324,
      "Ġchanging": 4325,
      "Ġprefer": 4326,
      "rant": 4327,
      "ager": 4328,
      "Ġsample": 4329,
      "Ġthr": 4330,
      "Ġpolicies": 4331,
      "works": 4332,
      "edic": 4333,
      "icial": 4334,
      "Ġoxygen": 4335,
      "Ġ190": 4336,
      "ologists": 4337,
      "erences": 4338,
      "Ġpartners": 4339,
      "ĠRel": 4340,
      "Ġrisks": 4341,
      "rest": 4342,
      "Ġhear": 4343,
      "Ġparticipants": 4344,
      "Ġappe": 4345,
      "tered": 4346,
      "ilit": 4347,
      "ĠGreek": 4348,
      "olved": 4349,
      "Ġsolutions": 4350,
      "Ġorganic": 4351,
      "Ġdivers": 4352,
      "Ġ#": 4353,
      "raction": 4354,
      "Ġready": 4355,
      "Ġstarting": 4356,
      "Ġassessment": 4357,
      "Ġfailure": 4358,
      "Ġreducing": 4359,
      "ĠUnder": 4360,
      "Ġcharacteristics": 4361,
      "Ġlayer": 4362,
      "45": 4363,
      "Ġunivers": 4364,
      "ognitive": 4365,
      "Ar": 4366,
      "PS": 4367,
      "Ġdrop": 4368,
      "erved": 4369,
      "Ġcovered": 4370,
      "Ġresulting": 4371,
      "Ġconnection": 4372,
      "iveness": 4373,
      "Ġtrib": 4374,
      "key": 4375,
      "ĠSpanish": 4376,
      "Ġinflamm": 4377,
      "Ġprepar": 4378,
      "Ġdri": 4379,
      "Ġturned": 4380,
      "ĠSocial": 4381,
      "Ġbattle": 4382,
      "Ġinitial": 4383,
      "roup": 4384,
      "Ġisol": 4385,
      "Ph": 4386,
      "Ġshap": 4387,
      "Ġinternal": 4388,
      "olid": 4389,
      "anging": 4390,
      "atform": 4391,
      "Ġcreation": 4392,
      "Ġsav": 4393,
      "atically": 4394,
      "Ġrelationships": 4395,
      "cular": 4396,
      "Ġdegrees": 4397,
      "hetic": 4398,
      "Ġsurgery": 4399,
      "Ġburn": 4400,
      "Sh": 4401,
      "Ġwin": 4402,
      "Ġnoted": 4403,
      "ĠAv": 4404,
      "Ġcampaign": 4405,
      "ĠWork": 4406,
      "ocal": 4407,
      "EM": 4408,
      "Ġminor": 4409,
      "ĠFood": 4410,
      "Ġauthors": 4411,
      "Ġreferred": 4412,
      "OS": 4413,
      "ij": 4414,
      "Ġdistinct": 4415,
      "ĠTherefore": 4416,
      "Ġocean": 4417,
      "Ġvitamin": 4418,
      "ĠRepublic": 4419,
      "Ġtechnique": 4420,
      "Ġinvolves": 4421,
      "Ġradio": 4422,
      "Ġseed": 4423,
      "Ġhappens": 4424,
      "Ġcircum": 4425,
      "Ġtrig": 4426,
      "Ġtour": 4427,
      "onds": 4428,
      "Ġmostly": 4429,
      "Ġtim": 4430,
      "However": 4431,
      "Ġmic": 4432,
      "Ġexactly": 4433,
      "Ġseeds": 4434,
      "nam": 4435,
      "Ġvessel": 4436,
      "Ġgames": 4437,
      "ĠGeorge": 4438,
      "Ġoutput": 4439,
      "Ġ2017": 4440,
      "Ġfreedom": 4441,
      "essor": 4442,
      "Ġfinding": 4443,
      "ĠRetrieved": 4444,
      "Ġfeeling": 4445,
      "lick": 4446,
      "Ġdangerous": 4447,
      "Ġload": 4448,
      "Ġstorage": 4449,
      "elines": 4450,
      "Ġinjury": 4451,
      "Ġconv": 4452,
      "Ġnor": 4453,
      "ĠTex": 4454,
      "Ġencourage": 4455,
      "Ġremoved": 4456,
      "Ġclasses": 4457,
      "Ġthick": 4458,
      "Ġbackground": 4459,
      "ss": 4460,
      "Ġcollege": 4461,
      "urance": 4462,
      "ĠGovernment": 4463,
      "ĠAir": 4464,
      "Ġmentioned": 4465,
      "Ġtrou": 4466,
      "ĠMuseum": 4467,
      "Ġalg": 4468,
      "Ġtrend": 4469,
      "Ġexpression": 4470,
      "ault": 4471,
      "ception": 4472,
      "rows": 4473,
      "Ġarm": 4474,
      "Ġproperly": 4475,
      "Ġreplace": 4476,
      "Ġinfections": 4477,
      "Ġsand": 4478,
      "Ġupper": 4479,
      "Ġcounter": 4480,
      "Ġterrit": 4481,
      "Ġheard": 4482,
      "ĠSam": 4483,
      "Ġphysic": 4484,
      "Ġscen": 4485,
      "ĠTest": 4486,
      "ressed": 4487,
      "rep": 4488,
      "Ġadjust": 4489,
      "Ġmeeting": 4490,
      "Ġstatement": 4491,
      "Ġreprodu": 4492,
      "Ġreligion": 4493,
      "ios": 4494,
      "ortunately": 4495,
      "Ġwhom": 4496,
      "33": 4497,
      "Ġ29": 4498,
      "Ġannual": 4499,
      "Ġtooth": 4500,
      "Ġgenes": 4501,
      "Ġhelped": 4502,
      "Ġ186": 4503,
      "Ġrace": 4504,
      "Ġupd": 4505,
      "Ġvul": 4506,
      "Ġunf": 4507,
      "Ġbeautiful": 4508,
      "ĠPaul": 4509,
      "Ġdie": 4510,
      "Ġgod": 4511,
      "78": 4512,
      "Ġmessage": 4513,
      "ĠCourt": 4514,
      "ndrome": 4515,
      "osystem": 4516,
      "riculum": 4517,
      "stitution": 4518,
      "Ġgrass": 4519,
      "Ġpal": 4520,
      "ĠProject": 4521,
      "Ġadvanced": 4522,
      "ĠOnce": 4523,
      "Ġradiation": 4524,
      "Ġcore": 4525,
      "Ġpric": 4526,
      "Ġpages": 4527,
      "Sp": 4528,
      "Ġoption": 4529,
      "ii": 4530,
      "Ġfine": 4531,
      "ĠOff": 4532,
      "Ġanxiety": 4533,
      "Ġexcell": 4534,
      "Ġelimin": 4535,
      "Ġconfirm": 4536,
      "Ġincorpor": 4537,
      "Ġprinciples": 4538,
      "Ġemotional": 4539,
      "Ġexperienced": 4540,
      "Ġadvantage": 4541,
      "rog": 4542,
      "och": 4543,
      "Ġdetermined": 4544,
      "Ġdram": 4545,
      "Ġexperts": 4546,
      "Ġdepending": 4547,
      "Ġprofession": 4548,
      "ĠInf": 4549,
      "Ġleads": 4550,
      "ishing": 4551,
      "Ġclick": 4552,
      "Ġplease": 4553,
      "Ġacademic": 4554,
      "with": 4555,
      "Ġ...": 4556,
      "Ġinvolve": 4557,
      "ĠOb": 4558,
      "mark": 4559,
      "ĠOrgan": 4560,
      "Ġregarding": 4561,
      "ya": 4562,
      "ĠCath": 4563,
      "ĠRober": 4564,
      "ĠFore": 4565,
      "Ġspot": 4566,
      "Ġconflict": 4567,
      "Ġhorm": 4568,
      "Ġvolume": 4569,
      "Ġgrant": 4570,
      "Ġbelong": 4571,
      "Ġsolid": 4572,
      "Ġsem": 4573,
      "lease": 4574,
      "Ġpromote": 4575,
      "Ġtransform": 4576,
      "Ġreb": 4577,
      "Ġlandsc": 4578,
      "Ġmist": 4579,
      "ta": 4580,
      "uration": 4581,
      "orial": 4582,
      "Ġunits": 4583,
      "Ġarticles": 4584,
      "Ġpreviously": 4585,
      "Ġvictim": 4586,
      "Ġserved": 4587,
      "Ġinterested": 4588,
      "road": 4589,
      "ĠIsland": 4590,
      "Ġcris": 4591,
      "Ġinterpret": 4592,
      "umn": 4593,
      "Ġ90": 4594,
      "Ġrelevant": 4595,
      "ĠMount": 4596,
      "Ġisland": 4597,
      "Ġexposed": 4598,
      "rum": 4599,
      "ago": 4600,
      "Ġtum": 4601,
      "According": 4602,
      "Ġlinked": 4603,
      "ĠDem": 4604,
      "ping": 4605,
      "ander": 4606,
      "Ġsort": 4607,
      "Ġprocessing": 4608,
      "ĠGra": 4609,
      "Ġcomprehens": 4610,
      "uing": 4611,
      "Ġcredit": 4612,
      "nic": 4613,
      "oyal": 4614,
      "Ġconservation": 4615,
      "eties": 4616,
      "Ġpollution": 4617,
      "Ġfarmers": 4618,
      "itz": 4619,
      "ĠHen": 4620,
      "Ġkept": 4621,
      "Ġvot": 4622,
      "75": 4623,
      "riage": 4624,
      "ĠMal": 4625,
      "Ġinput": 4626,
      "Ġsynt": 4627,
      "iverse": 4628,
      "Ġdecided": 4629,
      "Ġjour": 4630,
      "Ġmeat": 4631,
      "Ġsaying": 4632,
      "ributed": 4633,
      "Ġhelping": 4634,
      "mal": 4635,
      "Ġdescribe": 4636,
      "Ġinfluen": 4637,
      "cop": 4638,
      "ĠIts": 4639,
      "mat": 4640,
      "Ġgender": 4641,
      "ĠLa": 4642,
      "uted": 4643,
      "ĠST": 4644,
      "Ġvolunt": 4645,
      "ĠSun": 4646,
      "Ġoperation": 4647,
      "Ġwealth": 4648,
      "Ġinh": 4649,
      "Ġeffectively": 4650,
      "Ġfol": 4651,
      "Ġamounts": 4652,
      "Ġship": 4653,
      "ategy": 4654,
      "onic": 4655,
      "wood": 4656,
      "ĠJews": 4657,
      "Ġeggs": 4658,
      "Ġ70": 4659,
      "cers": 4660,
      "ĠStudents": 4661,
      "Ġreaction": 4662,
      "za": 4663,
      "Ġround": 4664,
      "Ġconcerns": 4665,
      "Ġspent": 4666,
      "ĠHIV": 4667,
      "Ġmath": 4668,
      "urt": 4669,
      "ĠMark": 4670,
      "Ġengineering": 4671,
      "ĠDi": 4672,
      "ĠMexico": 4673,
      "Ġmanufacture": 4674,
      "Ġmeant": 4675,
      "Ġmathemat": 4676,
      "place": 4677,
      "ĠEvery": 4678,
      "isher": 4679,
      "Ġcomfort": 4680,
      "Ġprepared": 4681,
      "ĠAsia": 4682,
      "alled": 4683,
      "Here": 4684,
      "Ġmanage": 4685,
      "ĠBel": 4686,
      "Ġobvious": 4687,
      "ĠNAS": 4688,
      "Ġmel": 4689,
      "ĠPort": 4690,
      "Ġessay": 4691,
      "Ġstrategy": 4692,
      "Ġexpert": 4693,
      "ux": 4694,
      "36": 4695,
      "Ġphase": 4696,
      "Ġmotor": 4697,
      "Ġpret": 4698,
      "leg": 4699,
      "Ã¡": 4700,
      "Ġpip": 4701,
      "Ġlung": 4702,
      "Ġcalc": 4703,
      "Ġnorthern": 4704,
      "rete": 4705,
      "ĠPhys": 4706,
      "inate": 4707,
      "ĠRich": 4708,
      "Ġcast": 4709,
      "Ġconcepts": 4710,
      "Ġsquare": 4711,
      "Ġhearing": 4712,
      "Ġhour": 4713,
      "well": 4714,
      "aughter": 4715,
      "Ġdatab": 4716,
      "Ġconsult": 4717,
      "Ġconcern": 4718,
      "ifying": 4719,
      "ĠWhite": 4720,
      "Ġaid": 4721,
      "Ġsouthern": 4722,
      "Ġdefic": 4723,
      "Ġdiss": 4724,
      "Ġlanguages": 4725,
      "onomic": 4726,
      "That": 4727,
      "board": 4728,
      "Ġcompleted": 4729,
      "ded": 4730,
      "Ġatmosphere": 4731,
      "Ġ2004": 4732,
      "ĠService": 4733,
      "Ġkill": 4734,
      "mp": 4735,
      "ams": 4736,
      "Ġsong": 4737,
      "Ġpresc": 4738,
      "Ġcoal": 4739,
      "ules": 4740,
      "Ġinvent": 4741,
      "Ġimproved": 4742,
      "CC": 4743,
      "Ġsustainable": 4744,
      "Ġsignal": 4745,
      "Ġbud": 4746,
      "Ġdefinition": 4747,
      "AD": 4748,
      "Ġreached": 4749,
      "Ġefficiency": 4750,
      "Ġseek": 4751,
      "vision": 4752,
      "which": 4753,
      "Ġgrade": 4754,
      "Ġowners": 4755,
      "ball": 4756,
      "iling": 4757,
      "ĠSub": 4758,
      "Ġofficial": 4759,
      "ĠEv": 4760,
      "Ġconver": 4761,
      "Ġcere": 4762,
      "berg": 4763,
      "Ġdiagnosis": 4764,
      "acing": 4765,
      "ĠHel": 4766,
      "Ġplatform": 4767,
      "Ġlib": 4768,
      "oking": 4769,
      "Ġpieces": 4770,
      "Ġwest": 4771,
      "Ġclos": 4772,
      "zing": 4773,
      "Ġpun": 4774,
      "Ġhop": 4775,
      "ĠMars": 4776,
      "standing": 4777,
      "ĠTexas": 4778,
      "Ġinstitutions": 4779,
      "ria": 4780,
      "Ġimpl": 4781,
      "Ġmotiv": 4782,
      "Ġconclud": 4783,
      "uable": 4784,
      "Ġvegetables": 4785,
      "Ġmanner": 4786,
      "Ġawareness": 4787,
      "rans": 4788,
      "Ġbrother": 4789,
      "Ġchemicals": 4790,
      "100": 4791,
      "Ġnotice": 4792,
      "Ġlooks": 4793,
      "Ġdiscover": 4794,
      "Con": 4795,
      "OT": 4796,
      "Ġpurposes": 4797,
      "Ġappoint": 4798,
      "Ġmainly": 4799,
      "ĠRem": 4800,
      "Ġfinally": 4801,
      "Ġcharge": 4802,
      "38": 4803,
      "Ġfrequency": 4804,
      "Ġshared": 4805,
      "Ġauthority": 4806,
      "ĠAD": 4807,
      "Ġsecret": 4808,
      "tes": 4809,
      "Ġcontinues": 4810,
      "Ġproposed": 4811,
      "Ġlic": 4812,
      "kin": 4813,
      "Ġmort": 4814,
      "rence": 4815,
      "Ġprocedure": 4816,
      "Ġyellow": 4817,
      "ĠBas": 4818,
      "ormal": 4819,
      "bi": 4820,
      "Ġdrinking": 4821,
      "comes": 4822,
      "Ġcorresp": 4823,
      "Ġsupported": 4824,
      "acific": 4825,
      "ĠCentral": 4826,
      "Ġpractical": 4827,
      "clusion": 4828,
      "Ġintended": 4829,
      "astern": 4830,
      "Ġhospital": 4831,
      "Ġwet": 4832,
      "Ġstation": 4833,
      "Äģ": 4834,
      "ĠJe": 4835,
      "ĠBer": 4836,
      "itors": 4837,
      "anch": 4838,
      "des": 4839,
      "Ġrecorded": 4840,
      "aker": 4841,
      "Now": 4842,
      "ĠLou": 4843,
      "ĠMr": 4844,
      "Ġallowing": 4845,
      "Ġyouth": 4846,
      "Ġbegins": 4847,
      "Ġsituations": 4848,
      "Ġwonder": 4849,
      "Ġlesson": 4850,
      "ek": 4851,
      "Ġprofessor": 4852,
      "ishes": 4853,
      "Ġvulner": 4854,
      "Ġcontribute": 4855,
      "Ġsufficient": 4856,
      "ags": 4857,
      "ĠVirgin": 4858,
      "ĠIslam": 4859,
      "atric": 4860,
      "amental": 4861,
      "ĠAcad": 4862,
      "ĠSen": 4863,
      "eline": 4864,
      "Ġblog": 4865,
      "Ġvaccine": 4866,
      "alle": 4867,
      "Ġrenew": 4868,
      "Ġpark": 4869,
      "Ġcomment": 4870,
      "Ġmorning": 4871,
      "Many": 4872,
      "Ġnav": 4873,
      "osite": 4874,
      "Ġextensive": 4875,
      "Ġtoxic": 4876,
      "Ġreduction": 4877,
      "Ġformation": 4878,
      "Res": 4879,
      "ounced": 4880,
      "AP": 4881,
      "akers": 4882,
      "Ġelectrical": 4883,
      "Ġtaught": 4884,
      "ĠDef": 4885,
      "ĠSer": 4886,
      "Although": 4887,
      "Ġban": 4888,
      "Ġideal": 4889,
      "Ġflex": 4890,
      "rapy": 4891,
      "otic": 4892,
      "acters": 4893,
      "ĠThomas": 4894,
      "Ġoffered": 4895,
      "Ġdro": 4896,
      "ĠMac": 4897,
      "ample": 4898,
      "Ġtasks": 4899,
      "'ll": 4900,
      "ĠMiss": 4901,
      "Ġheight": 4902,
      "ĠJer": 4903,
      "Ġhttps": 4904,
      "Ġforced": 4905,
      "Ġsamples": 4906,
      "Ġcareer": 4907,
      "Ġphenomen": 4908,
      "Ġhit": 4909,
      "Ġfort": 4910,
      "Ġremained": 4911,
      "Ġfacts": 4912,
      "ixt": 4913,
      "ears": 4914,
      "ĠNASA": 4915,
      "Ġconsequences": 4916,
      "Ġwaters": 4917,
      "Ġstorm": 4918,
      "Ġsubjects": 4919,
      "Ġlov": 4920,
      "la": 4921,
      "Ġ35": 4922,
      "ĠBritain": 4923,
      "ĠOld": 4924,
      "ĠâĢ¦": 4925,
      "Ġ2003": 4926,
      "ĠÃ": 4927,
      "Ġtechnical": 4928,
      "Ġcombined": 4929,
      "ĠArab": 4930,
      "ĠCivil": 4931,
      "Ġfocused": 4932,
      "eters": 4933,
      "Ġfib": 4934,
      "lig": 4935,
      "ague": 4936,
      "Ġprimarily": 4937,
      "ĠMart": 4938,
      "rations": 4939,
      "Ġstraight": 4940,
      "Ġkinds": 4941,
      "Our": 4942,
      "Ġmaster": 4943,
      "Ġjobs": 4944,
      "vis": 4945,
      "Ġindicate": 4946,
      "roke": 4947,
      "Ġtreatments": 4948,
      "tion": 4949,
      "Ġbird": 4950,
      "Ġidentity": 4951,
      "Ġcertainly": 4952,
      "Ġliquid": 4953,
      "Ġexistence": 4954,
      "Ġarmy": 4955,
      "oper": 4956,
      "Ġfoss": 4957,
      "Ġcoord": 4958,
      "espite": 4959,
      "Ġmuscles": 4960,
      "Ġwife": 4961,
      "Ġdoll": 4962,
      "Ġcenturies": 4963,
      "34": 4964,
      "Ġoperating": 4965,
      "ĠMuslim": 4966,
      "ado": 4967,
      "arrow": 4968,
      "ĠBudd": 4969,
      "Ġsector": 4970,
      "olute": 4971,
      "ĠClass": 4972,
      "Ġlargely": 4973,
      "ht": 4974,
      "ĠCle": 4975,
      "Ġdynam": 4976,
      "Ġfelt": 4977,
      "inger": 4978,
      "Ġeast": 4979,
      "ossible": 4980,
      "Ġspend": 4981,
      "aturally": 4982,
      "Ġbrief": 4983,
      "eria": 4984,
      "iated": 4985,
      "ĠEnergy": 4986,
      "RO": 4987,
      "ĠToday": 4988,
      "Ġspecifically": 4989,
      "Ġflowers": 4990,
      "verty": 4991,
      "Ġoccurred": 4992,
      "ĠFranc": 4993,
      "ĠMet": 4994,
      "Ġperman": 4995,
      "nel": 4996,
      "Ġshowing": 4997,
      "Ġpoverty": 4998,
      "ĠLatin": 4999,
      "gra": 5000,
      "Ġresist": 5001,
      "ĠAtl": 5002,
      "Ġextent": 5003,
      "west": 5004,
      "Ġadvance": 5005,
      "ĠBen": 5006,
      "istan": 5007,
      "ĠSal": 5008,
      "Ġbright": 5009,
      "No": 5010,
      "EL": 5011,
      "Ġecosystem": 5012,
      "Ġcollected": 5013,
      "Ġraised": 5014,
      "Why": 5015,
      "Ġgrand": 5016,
      "ĠDist": 5017,
      "Ġkeeping": 5018,
      "Ġfaster": 5019,
      "rich": 5020,
      "rier": 5021,
      "New": 5022,
      "Ġattacks": 5023,
      "inf": 5024,
      "ĠHol": 5025,
      "ĠLife": 5026,
      "Ġemergency": 5027,
      "ulating": 5028,
      "ĠNews": 5029,
      "Ġletters": 5030,
      "ework": 5031,
      "Ġvoice": 5032,
      "Ġstone": 5033,
      "Ġrecy": 5034,
      "what": 5035,
      "Ġshar": 5036,
      "Ġrevolution": 5037,
      "osen": 5038,
      "ache": 5039,
      "Ġ1990": 5040,
      "Ġgar": 5041,
      "going": 5042,
      "ĠSom": 5043,
      "ĠFurther": 5044,
      "Ġnutrients": 5045,
      "Ġvital": 5046,
      "ĠFre": 5047,
      "Ġther": 5048,
      "rastructure": 5049,
      "Ġsounds": 5050,
      "ĠBay": 5051,
      "Ġsettle": 5052,
      "ĠDirect": 5053,
      "Ġlinks": 5054,
      "CO": 5055,
      "Ġparticles": 5056,
      "Ġresponsibility": 5057,
      "Ġimpacts": 5058,
      "Ġexcellent": 5059,
      "lar": 5060,
      "Ġtro": 5061,
      "Ġnations": 5062,
      "oo": 5063,
      "ĠDise": 5064,
      "Ġleader": 5065,
      "Ġsurrounding": 5066,
      "Ġkn": 5067,
      "Ġdespite": 5068,
      "Ġcharacters": 5069,
      "ĠArmy": 5070,
      "ĠMedicine": 5071,
      "Ġadvice": 5072,
      "ipped": 5073,
      "pen": 5074,
      "Ġdigest": 5075,
      "ĠBible": 5076,
      "Ġvast": 5077,
      "band": 5078,
      "ĠSecond": 5079,
      "Ġhelpful": 5080,
      "Ġclim": 5081,
      "Ġdomestic": 5082,
      "Ġdiam": 5083,
      "Ġhyper": 5084,
      "Ġagricultural": 5085,
      "osa": 5086,
      "Ġperspective": 5087,
      "99": 5088,
      "Ġnerv": 5089,
      "Ġroll": 5090,
      "ras": 5091,
      "Ġsalt": 5092,
      "col": 5093,
      "ĠSpace": 5094,
      "oxide": 5095,
      "Ġthoughts": 5096,
      "Ġ2001": 5097,
      "inent": 5098,
      "Ġotherwise": 5099,
      "ĠCommission": 5100,
      "name": 5101,
      "Ġrefers": 5102,
      "ĠMedical": 5103,
      "US": 5104,
      "Ġfamiliar": 5105,
      "Ġonto": 5106,
      "othing": 5107,
      "Ġsche": 5108,
      "ĠTechnology": 5109,
      "Ġaren": 5110,
      "Ġmoist": 5111,
      "Ġaffects": 5112,
      "Ġquar": 5113,
      "ĠCam": 5114,
      "ael": 5115,
      "ĠLearning": 5116,
      "ensus": 5117,
      "Ġcomponent": 5118,
      "ĠIr": 5119,
      "anges": 5120,
      "field": 5121,
      "ĠTwo": 5122,
      "Ġexplains": 5123,
      "Ġgoods": 5124,
      "iced": 5125,
      "Ġdouble": 5126,
      "rian": 5127,
      "Ġexternal": 5128,
      "'ve": 5129,
      "roc": 5130,
      "unk": 5131,
      "ĠBoth": 5132,
      "enses": 5133,
      "Ġdetailed": 5134,
      "Ġexplan": 5135,
      "Ġmere": 5136,
      "Ġvehicle": 5137,
      "Ġliver": 5138,
      "Ġcert": 5139,
      "that": 5140,
      "Ġplayed": 5141,
      "Ġcrops": 5142,
      "Ġmaximum": 5143,
      "itness": 5144,
      "Ġsnow": 5145,
      "Ġmotion": 5146,
      "ails": 5147,
      "ĠAN": 5148,
      "Americ": 5149,
      "Ġmonitoring": 5150,
      "Ġsuggested": 5151,
      "Ġoral": 5152,
      "Ġthin": 5153,
      "ey": 5154,
      "umin": 5155,
      "Ġnit": 5156,
      "Ġsend": 5157,
      "olars": 5158,
      "uls": 5159,
      "Ġtypical": 5160,
      "Ġimmig": 5161,
      "48": 5162,
      "Ġbiological": 5163,
      "athy": 5164,
      "Ġperiods": 5165,
      "Ġsurpris": 5166,
      "Ġgreatest": 5167,
      "yright": 5168,
      "Ġpray": 5169,
      "Ġfacilities": 5170,
      "ĠJud": 5171,
      "rates": 5172,
      "ĠData": 5173,
      "].": 5174,
      "Ġbill": 5175,
      "Ġpil": 5176,
      "ĠMil": 5177,
      "Ġsyn": 5178,
      "Ġincreasingly": 5179,
      "Ġrail": 5180,
      "li": 5181,
      "Ġinterests": 5182,
      ".;": 5183,
      "Ġaccurate": 5184,
      "Ġpersons": 5185,
      "RI": 5186,
      "oughly": 5187,
      "Ġtopics": 5188,
      "ĠMass": 5189,
      "Ġcrucial": 5190,
      "Ġrural": 5191,
      "ĠQue": 5192,
      "Ġbow": 5193,
      "Ġtrial": 5194,
      "From": 5195,
      "ĠElect": 5196,
      "Ġlik": 5197,
      "hi": 5198,
      "win": 5199,
      "ificial": 5200,
      "Ġsatis": 5201,
      "Ġhaz": 5202,
      "Ġvent": 5203,
      "Ġexplained": 5204,
      "ĠBur": 5205,
      "Ġfif": 5206,
      "stood": 5207,
      "Ġmeasured": 5208,
      "Ġmetab": 5209,
      "Ġcognitive": 5210,
      "Ġdivided": 5211,
      "point": 5212,
      "Ġ2020": 5213,
      "Ġdepends": 5214,
      "Ġapparent": 5215,
      "Ġpaint": 5216,
      "Ġslightly": 5217,
      "Ġhappened": 5218,
      "Most": 5219,
      "aks": 5220,
      "gl": 5221,
      "Ġgirls": 5222,
      "BC": 5223,
      "ancing": 5224,
      "39": 5225,
      "down": 5226,
      "Ġfundamental": 5227,
      "Ġrequest": 5228,
      "pat": 5229,
      "Cl": 5230,
      "ĠBook": 5231,
      "Ġfluid": 5232,
      "Ġroots": 5233,
      "ĠPacific": 5234,
      "Ġfloor": 5235,
      "igenous": 5236,
      "Ġspl": 5237,
      "ĠLake": 5238,
      "Ġfollows": 5239,
      "Ġdisapp": 5240,
      "right": 5241,
      "Ġinstrument": 5242,
      "omin": 5243,
      "ĠBC": 5244,
      "ION": 5245,
      "Ġju": 5246,
      "resents": 5247,
      "cript": 5248,
      "Ġproport": 5249,
      "Ġinstruction": 5250,
      "Ġinterview": 5251,
      "ompl": 5252,
      "Ġvalid": 5253,
      "Ġharvest": 5254,
      "Ġsin": 5255,
      "Ġneut": 5256,
      "Ġwel": 5257,
      "Ġphone": 5258,
      "Ġinvestment": 5259,
      "Ġplaying": 5260,
      "atever": 5261,
      "Ġtested": 5262,
      "ĠFoundation": 5263,
      "Ġreturned": 5264,
      "ĠKore": 5265,
      "Ġflat": 5266,
      "Ġ2018": 5267,
      "Ġpotentially": 5268,
      "ĠFlor": 5269,
      "ĠMont": 5270,
      "Ġstudied": 5271,
      "ville": 5272,
      "Ġfiles": 5273,
      "ĠSou": 5274,
      "Ġsmart": 5275,
      "37": 5276,
      "van": 5277,
      "Ġpolice": 5278,
      "itage": 5279,
      "ĠWind": 5280,
      "ship": 5281,
      "Ġcontrolled": 5282,
      "Ġfeelings": 5283,
      "Ġstem": 5284,
      "Ġ2002": 5285,
      "Ġsubstant": 5286,
      "asure": 5287,
      "eck": 5288,
      "Ġproteins": 5289,
      "ĠJose": 5290,
      "ĠUsing": 5291,
      "Ġgovernments": 5292,
      "Ġlose": 5293,
      "Ġgrown": 5294,
      "Ġhundreds": 5295,
      "Ġlooked": 5296,
      "gal": 5297,
      "Ġimmun": 5298,
      "Ġtrain": 5299,
      "iest": 5300,
      "Ġkil": 5301,
      "Ġtips": 5302,
      "inding": 5303,
      "Ġstars": 5304,
      "Ġcontaining": 5305,
      "ĠRobert": 5306,
      "ĠWomen": 5307,
      "Ġkm": 5308,
      "Ġcurriculum": 5309,
      "Ġsuffering": 5310,
      "Ġprices": 5311,
      "ĠInformation": 5312,
      "omy": 5313,
      "utive": 5314,
      "Ġofficials": 5315,
      "Ġrecognized": 5316,
      "Ġhabitat": 5317,
      "Ġneighbor": 5318,
      "Ġabuse": 5319,
      "Ab": 5320,
      "gment": 5321,
      "Ġsubsequ": 5322,
      "Ġwalls": 5323,
      "ĠPost": 5324,
      "Ġsen": 5325,
      "Ġtried": 5326,
      "Ġobtained": 5327,
      "Ġconscious": 5328,
      "ĠGoogle": 5329,
      "Ġchann": 5330,
      "Ġprotected": 5331,
      "Ġhorse": 5332,
      "Ġfruits": 5333,
      "Ġdepth": 5334,
      "Ġwestern": 5335,
      "Ġconvent": 5336,
      "Ġconcerned": 5337,
      "ING": 5338,
      "Ġfirm": 5339,
      "Ġconsists": 5340,
      "Ġpregnancy": 5341,
      "rolog": 5342,
      "Ġspiritual": 5343,
      "Ġfle": 5344,
      "Another": 5345,
      "Ġportion": 5346,
      "Ġclosely": 5347,
      "MS": 5348,
      "onomy": 5349,
      "Ġ2019": 5350,
      "44": 5351,
      "Ġ*": 5352,
      "ĠCarol": 5353,
      "More": 5354,
      "ĠAnother": 5355,
      "Ġvisible": 5356,
      "Ġelev": 5357,
      "Im": 5358,
      "ĠCD": 5359,
      "Ġminimum": 5360,
      "Ġrepresents": 5361,
      "ĠSmith": 5362,
      "Ġcrisis": 5363,
      "Ġappeared": 5364,
      "Ġvaluable": 5365,
      "ĠStand": 5366,
      "zy": 5367,
      "?âĢĿ": 5368,
      "Ġchief": 5369,
      "burg": 5370,
      "active": 5371,
      "umber": 5372,
      "celer": 5373,
      "ĠTreat": 5374,
      "Ġdut": 5375,
      "ĠOut": 5376,
      "cest": 5377,
      "Ġdial": 5378,
      "Ġoutcomes": 5379,
      "icks": 5380,
      "Pl": 5381,
      "Ġrapidly": 5382,
      "Ġweap": 5383,
      "ĠSea": 5384,
      "Ġdu": 5385,
      "Ġcontinuous": 5386,
      "Ġclaims": 5387,
      "Ġpaid": 5388,
      "Ġaccompl": 5389,
      "Ġdiscussed": 5390,
      "Ġstock": 5391,
      "Ġresidents": 5392,
      "ĠFam": 5393,
      "ĠLand": 5394,
      "Ġapproaches": 5395,
      "Ġknew": 5396,
      "roid": 5397,
      "oral": 5398,
      "Ġpig": 5399,
      "ĠHenry": 5400,
      "Ġadding": 5401,
      "abil": 5402,
      "Ġdeliver": 5403,
      "ĠRussian": 5404,
      "tenance": 5405,
      "ĠCharles": 5406,
      "Ġinches": 5407,
      "isp": 5408,
      "anguage": 5409,
      "Ġlatest": 5410,
      "Ġpu": 5411,
      "ellect": 5412,
      "Ġappearance": 5413,
      "Ġalt": 5414,
      "Ġrand": 5415,
      "ĠCatholic": 5416,
      "Ġprison": 5417,
      "Ġcardi": 5418,
      "Ġexpensive": 5419,
      "Ġinternet": 5420,
      "Ġsides": 5421,
      "Ġsyndrome": 5422,
      "chers": 5423,
      "65": 5424,
      "Ġgun": 5425,
      "Ġcolors": 5426,
      "Ġbusinesses": 5427,
      "ĠMiddle": 5428,
      "Ġmedications": 5429,
      "Ġtitle": 5430,
      "95": 5431,
      "Ġviews": 5432,
      "Ġselected": 5433,
      "TS": 5434,
      "ĠUp": 5435,
      "fall": 5436,
      "Ġstret": 5437,
      "ĠNor": 5438,
      "Ġwire": 5439,
      "Ġdistingu": 5440,
      "Ġstated": 5441,
      "Ġconcentration": 5442,
      "lers": 5443,
      "ĠPsych": 5444,
      "Ġinfrastructure": 5445,
      "iled": 5446,
      "Ġcircumst": 5447,
      "Ġcouple": 5448,
      "ĠMake": 5449,
      "Ġdecrease": 5450,
      "Ġmedium": 5451,
      "Ġjustice": 5452,
      "ario": 5453,
      "Ġregularly": 5454,
      "Ġleaving": 5455,
      "ĠDisc": 5456,
      "Ġmovements": 5457,
      "Ġrandom": 5458,
      "Ġdirector": 5459,
      "Ġinflammation": 5460,
      "Ġdriving": 5461,
      "âĢĻ.": 5462,
      "Ġextract": 5463,
      "olf": 5464,
      "ĠInstead": 5465,
      "ĠSupp": 5466,
      "ĠMem": 5467,
      "Ġcorrespond": 5468,
      "Ġnaturally": 5469,
      "Ġprocedures": 5470,
      "Ġpump": 5471,
      "Ġband": 5472,
      "32": 5473,
      "ooth": 5474,
      "Ġagriculture": 5475,
      "Ġcontem": 5476,
      "ĠRussia": 5477,
      "free": 5478,
      "ÃŃ": 5479,
      "Ġdeaths": 5480,
      "Ġdiversity": 5481,
      "Ġmoral": 5482,
      "ĠLike": 5483,
      "ĠEngine": 5484,
      "alse": 5485,
      "Ġhunt": 5486,
      "Ġsatell": 5487,
      "ĠHam": 5488,
      "Ġrecognize": 5489,
      "state": 5490,
      "Ġages": 5491,
      "Ġlessons": 5492,
      "Ġargument": 5493,
      "ascular": 5494,
      "Ġreform": 5495,
      "ocratic": 5496,
      "racy": 5497,
      "Ġwear": 5498,
      "Ġintelligence": 5499,
      "ĠRef": 5500,
      "Ġadvoc": 5501,
      "ĠNav": 5502,
      "Ġprinciple": 5503,
      "anes": 5504,
      "Ġfrag": 5505,
      "bing": 5506,
      "Ġfunding": 5507,
      "Ġsick": 5508,
      "....": 5509,
      "Ġmobile": 5510,
      "Ġassemb": 5511,
      "Ġsecure": 5512,
      "Ġ45": 5513,
      "Ġ<": 5514,
      "indu": 5515,
      "ulin": 5516,
      "Ġdocuments": 5517,
      "Ġemployees": 5518,
      "Ġsed": 5519,
      "Ġmillions": 5520,
      "ĠLouis": 5521,
      "ĠDel": 5522,
      "ĠScient": 5523,
      "Do": 5524,
      "Ġdiscovery": 5525,
      "ĠSuch": 5526,
      "Ġsets": 5527,
      "Ġformat": 5528,
      "ĠCompany": 5529,
      "ĠTem": 5530,
      "Ġ188": 5531,
      "Ġrein": 5532,
      "ĠControl": 5533,
      "Ġshel": 5534,
      "ĠWild": 5535,
      "ĠSte": 5536,
      "ĠTHE": 5537,
      "ola": 5538,
      "DF": 5539,
      "ava": 5540,
      "ĠRights": 5541,
      "ota": 5542,
      "rem": 5543,
      "Ġtalking": 5544,
      "Ġsan": 5545,
      "uke": 5546,
      "oster": 5547,
      "ĠNature": 5548,
      "teries": 5549,
      "Ġsoldiers": 5550,
      "Ġsubstance": 5551,
      "ĠEnvironmental": 5552,
      "Ġcapable": 5553,
      "Ġod": 5554,
      "ĠSaf": 5555,
      "Ġentirely": 5556,
      "ypes": 5557,
      "Ġraise": 5558,
      "Ġinfected": 5559,
      "Ġsuffer": 5560,
      "ĠStudies": 5561,
      "ĠBet": 5562,
      "ĠSov": 5563,
      "stream": 5564,
      "HO": 5565,
      "Ġparam": 5566,
      "attle": 5567,
      "ĠLibrary": 5568,
      "Ġbrown": 5569,
      "Ġcoff": 5570,
      "198": 5571,
      "Ġenhance": 5572,
      "Ġingred": 5573,
      "plicated": 5574,
      "Ġallerg": 5575,
      "ĠSum": 5576,
      "Ġadequ": 5577,
      "cling": 5578,
      "Ġprevention": 5579,
      "long": 5580,
      "pping": 5581,
      "Ġtrad": 5582,
      "Ġabsolute": 5583,
      "ka": 5584,
      "ĠFederal": 5585,
      "ĠVirginia": 5586,
      "Ġparties": 5587,
      "ca": 5588,
      "exp": 5589,
      "mas": 5590,
      "Ġfertil": 5591,
      "ditionally": 5592,
      "ĠHistor": 5593,
      "ĠWell": 5594,
      "Ġfacilit": 5595,
      "alian": 5596,
      "ĠWil": 5597,
      "Ġrub": 5598,
      "Ġrecovery": 5599,
      "Ġtun": 5600,
      "Ġintroduction": 5601,
      "liam": 5602,
      "Ġinterf": 5603,
      "Ġapart": 5604,
      "Ġpure": 5605,
      "Ġbehaviour": 5606,
      "Ġclosed": 5607,
      "dden": 5608,
      "Ġmyth": 5609,
      "ĠEmp": 5610,
      "Ġexchange": 5611,
      "ĠManagement": 5612,
      "flow": 5613,
      "Ġsensitive": 5614,
      "olve": 5615,
      "Ġstages": 5616,
      "ibilities": 5617,
      "Ind": 5618,
      "Ġpoet": 5619,
      "othe": 5620,
      "rid": 5621,
      "Ġpref": 5622,
      "Ġvillage": 5623,
      "Ġaccomp": 5624,
      "Ġtraffic": 5625,
      "CS": 5626,
      "Ġunlike": 5627,
      "Ġcomputers": 5628,
      "Ġble": 5629,
      "rants": 5630,
      "ĠOx": 5631,
      "Ġprecise": 5632,
      "agers": 5633,
      "Ġpictures": 5634,
      "ĠKnow": 5635,
      "Ġwave": 5636,
      "orith": 5637,
      "ato": 5638,
      "ctic": 5639,
      "olester": 5640,
      "31": 5641,
      "BN": 5642,
      "comp": 5643,
      "idden": 5644,
      ".|": 5645,
      "Ġspeaking": 5646,
      "ĠAI": 5647,
      "ĠIN": 5648,
      "Ġmassive": 5649,
      "Ġformal": 5650,
      "Ġdescribes": 5651,
      "Ġimpossible": 5652,
      "Ġlibrary": 5653,
      "Ġnarrow": 5654,
      "bert": 5655,
      "Ġopinion": 5656,
      "Ġstick": 5657,
      "Ġproducing": 5658,
      "ĠPower": 5659,
      "Ġgall": 5660,
      "Ġnetworks": 5661,
      "ĠAbout": 5662,
      "Ġmoon": 5663,
      "Ġgenerate": 5664,
      "Ġdiscrim": 5665,
      "De": 5666,
      "Ġcalls": 5667,
      "Ġcorpor": 5668,
      "Ġsurvival": 5669,
      "Ġconsid": 5670,
      "Ġleadership": 5671,
      "Ġincl": 5672,
      "46": 5673,
      "76": 5674,
      "ĠBro": 5675,
      "Ġpossess": 5676,
      "Ġunderstood": 5677,
      "Ġlifest": 5678,
      "Ġcreative": 5679,
      "Ġnormally": 5680,
      "Ġvehicles": 5681,
      "omach": 5682,
      "ĠGroup": 5683,
      "oto": 5684,
      "Ġmit": 5685,
      "Ġtoler": 5686,
      "Ġtouch": 5687,
      "Ġhealthcare": 5688,
      "ada": 5689,
      "Ġchapter": 5690,
      "ĠDiv": 5691,
      "Ġwarming": 5692,
      "agues": 5693,
      "Ġreaders": 5694,
      "inet": 5695,
      "Ġrecip": 5696,
      "Other": 5697,
      "ĠKen": 5698,
      "ĠConstitution": 5699,
      "Ġnurs": 5700,
      "being": 5701,
      "asp": 5702,
      "Ġselection": 5703,
      "Ġpretty": 5704,
      "Ġhouses": 5705,
      "ĠÎ": 5706,
      "esity": 5707,
      "Ġpossibly": 5708,
      "ye": 5709,
      "Ġera": 5710,
      "Ġsudden": 5711,
      "Ġaw": 5712,
      "Ġsecondary": 5713,
      "ĠPC": 5714,
      "Ġmamm": 5715,
      "Ġaccepted": 5716,
      "Ġopened": 5717,
      "spec": 5718,
      "Ġchain": 5719,
      "Ġprepare": 5720,
      "Go": 5721,
      "Ġimproving": 5722,
      "Ġflight": 5723,
      "ĠAp": 5724,
      "Ġphr": 5725,
      "Ġoriginally": 5726,
      "Ġmanufacturing": 5727,
      "Ġancest": 5728,
      "organ": 5729,
      "Ġlisted": 5730,
      "war": 5731,
      "Ġnarr": 5732,
      "uilding": 5733,
      "Ġindex": 5734,
      "Ġfill": 5735,
      "Ġdatabase": 5736,
      "Ġprem": 5737,
      "Ġfigures": 5738,
      "Ġdistrict": 5739,
      "Ġdream": 5740,
      "Ġstored": 5741,
      "osal": 5742,
      "Ġdecline": 5743,
      "Ġinject": 5744,
      "During": 5745,
      "Ġsuitable": 5746,
      "Gen": 5747,
      "Ġdedic": 5748,
      "Ġregional": 5749,
      "Ġrecon": 5750,
      "Ġdiverse": 5751,
      "reed": 5752,
      "Ġlabel": 5753,
      "Ġwindow": 5754,
      "Ġadopted": 5755,
      "Ġbones": 5756,
      "ropical": 5757,
      "olesterol": 5758,
      "Ġleaf": 5759,
      "Ġapprec": 5760,
      "Ġrevealed": 5761,
      "Ġdomin": 5762,
      "Ġsuc": 5763,
      "Ġworldwide": 5764,
      "Ġpossibility": 5765,
      "Ġamb": 5766,
      "liament": 5767,
      "ĠMicro": 5768,
      "Ġcandid": 5769,
      "Ġlandscape": 5770,
      "Ġlatter": 5771,
      "Ġmountain": 5772,
      "500": 5773,
      "Ġarms": 5774,
      "apping": 5775,
      "Ġworse": 5776,
      "ona": 5777,
      "abits": 5778,
      "Ġrestrict": 5779,
      "Ġuniverse": 5780,
      "anged": 5781,
      "vironments": 5782,
      "ĠGood": 5783,
      "Ġunless": 5784,
      "obe": 5785,
      "ifies": 5786,
      "Ġcars": 5787,
      "hips": 5788,
      "Ġmedication": 5789,
      "Dr": 5790,
      "aser": 5791,
      "Ġachieved": 5792,
      "ĠTer": 5793,
      "Ġtal": 5794,
      "Ġgather": 5795,
      "erals": 5796,
      "Ġroutine": 5797,
      "Ġ1999": 5798,
      "ĠAlex": 5799,
      "abric": 5800,
      "ait": 5801,
      "ĠCommit": 5802,
      "Ġstarts": 5803,
      "ĠCommon": 5804,
      "ĠAtt": 5805,
      "ĠCare": 5806,
      "Ġdental": 5807,
      "prise": 5808,
      "Ġagencies": 5809,
      "oted": 5810,
      "rot": 5811,
      "Ġengage": 5812,
      "Ġminim": 5813,
      "alysis": 5814,
      "ĠPers": 5815,
      "cules": 5816,
      "Ġforests": 5817,
      "Ġhappy": 5818,
      "Ġcomprehensive": 5819,
      "Ġacts": 5820,
      "Ġwildlife": 5821,
      "IL": 5822,
      "ĠReview": 5823,
      "Ġrepeated": 5824,
      "Ġ31": 5825,
      "Ġabund": 5826,
      "Ġexperiments": 5827,
      "Ġbudget": 5828,
      "ĠFlorida": 5829,
      "Ġcloud": 5830,
      "55": 5831,
      "ett": 5832,
      "ĠOffice": 5833,
      "imer": 5834,
      "Ġaircraft": 5835,
      "Ġsell": 5836,
      "hist": 5837,
      "Ġfell": 5838,
      "ĠMo": 5839,
      "Ġcultiv": 5840,
      "Ġsurvive": 5841,
      "47": 5842,
      "Ġanswers": 5843,
      "Te": 5844,
      "ĠAny": 5845,
      "Ġplays": 5846,
      "Ġtow": 5847,
      "Ġadministration": 5848,
      "hemical": 5849,
      "Ġaf": 5850,
      "Ġsolve": 5851,
      "rors": 5852,
      "Ġplate": 5853,
      "no": 5854,
      "Us": 5855,
      "Ġsweet": 5856,
      "inations": 5857,
      "Ġindeed": 5858,
      "Ġmarriage": 5859,
      "normal": 5860,
      "born": 5861,
      "osm": 5862,
      "Ġremaining": 5863,
      "Ġcreates": 5864,
      "add": 5865,
      "Ġequival": 5866,
      "Ġfilled": 5867,
      "Ġdust": 5868,
      "Ġbeneficial": 5869,
      "Ġcatch": 5870,
      "erent": 5871,
      "Ġprofessionals": 5872,
      "ĠLabor": 5873,
      "last": 5874,
      "Ġbattery": 5875,
      "Ġcourses": 5876,
      "Ġsupplement": 5877,
      "ĠColumb": 5878,
      "My": 5879,
      "Ġintake": 5880,
      "Ġtwice": 5881,
      "Ġaccounts": 5882,
      "Ġharmful": 5883,
      "orter": 5884,
      "Ġguidelines": 5885,
      "Ġdoor": 5886,
      "Ġinjuries": 5887,
      "Ġafford": 5888,
      "ki": 5889,
      "Ġmur": 5890,
      "Ġsequence": 5891,
      "struct": 5892,
      "CT": 5893,
      "Ġtransition": 5894,
      "Ġgenerated": 5895,
      "ester": 5896,
      "lements": 5897,
      "inn": 5898,
      "Ġtail": 5899,
      "aria": 5900,
      "gent": 5901,
      "Ġwants": 5902,
      "ĠProv": 5903,
      "ston": 5904,
      "ĠOF": 5905,
      "Ġsurf": 5906,
      "Re": 5907,
      "Ġassistance": 5908,
      "acts": 5909,
      "Ġtiny": 5910,
      "Ġchart": 5911,
      "orrow": 5912,
      "ĠCanadian": 5913,
      "Ġintellect": 5914,
      "Ġmaintenance": 5915,
      "Ġexpressed": 5916,
      "Ġwaves": 5917,
      "ĠFe": 5918,
      "Ġremote": 5919,
      "Ġtells": 5920,
      "Ġaqu": 5921,
      "Sc": 5922,
      "Ġtroops": 5923,
      "ĠJoseph": 5924,
      "Ġdoctors": 5925,
      "ceived": 5926,
      "ĠLeg": 5927,
      "Ġmarine": 5928,
      "Ġjourney": 5929,
      "asive": 5930,
      "Ġedge": 5931,
      "ums": 5932,
      "Ġdepos": 5933,
      "ĠId": 5934,
      "Ġimper": 5935,
      "Ġ1980": 5936,
      "Ġantibiot": 5937,
      "inder": 5938,
      "osph": 5939,
      "Ġobtain": 5940,
      "mary": 5941,
      "icide": 5942,
      "Ġaudience": 5943,
      "Ġcorn": 5944,
      "ĠThose": 5945,
      "Ġagreement": 5946,
      "ashion": 5947,
      "Ġlands": 5948,
      "ua": 5949,
      "Ġfailed": 5950,
      "Ġelectronic": 5951,
      "Ġseeing": 5952,
      "Ġstruggle": 5953,
      "icians": 5954,
      "Ġreject": 5955,
      "Ġswitch": 5956,
      "Ġchoices": 5957,
      "zen": 5958,
      "Ġcircumstances": 5959,
      "Ġmuseum": 5960,
      "iform": 5961,
      "ĠGlobal": 5962,
      "Ġdecade": 5963,
      "Ġslowly": 5964,
      "Ġextended": 5965,
      "ansion": 5966,
      "Ġscholars": 5967,
      "49": 5968,
      "UR": 5969,
      "throp": 5970,
      "Ġfoundation": 5971,
      "ĠUSA": 5972,
      "tage": 5973,
      "Ġchildhood": 5974,
      "ĠThrough": 5975,
      "Ġsteel": 5976,
      "Ġerror": 5977,
      "Ã¼": 5978,
      "Ġskill": 5979,
      "Ġsports": 5980,
      "Ġbroken": 5981,
      "Ġcopy": 5982,
      "Ġdecide": 5983,
      "Ġopening": 5984,
      "Ġdiscipl": 5985,
      "ĠExpl": 5986,
      "ĠTor": 5987,
      "ĠProfessor": 5988,
      "Ġconsistent": 5989,
      "anda": 5990,
      ".âĢĻ": 5991,
      "Ġunknown": 5992,
      "Ġpull": 5993,
      "Ġtruly": 5994,
      "ĠAnn": 5995,
      "ĠGold": 5996,
      "ogue": 5997,
      "ushing": 5998,
      "Ġnan": 5999,
      "ects": 6000,
      "ĠNations": 6001,
      "ĠParis": 6002,
      "ĠSl": 6003,
      "ini": 6004,
      "body": 6005,
      "Ġderived": 6006,
      "ĠPeter": 6007,
      "Ġaer": 6008,
      "Ġframework": 6009,
      "ĠDesign": 6010,
      "Ġproduces": 6011,
      "Ġvolunte": 6012,
      "Ġalgorith": 6013,
      "using": 6014,
      "luding": 6015,
      "Ġenvironments": 6016,
      "ml": 6017,
      "Ġgal": 6018,
      "ĠStreet": 6019,
      "Ġacceler": 6020,
      "Ġlocations": 6021,
      "ĠFrank": 6022,
      "under": 6023,
      "EP": 6024,
      "ĠHaw": 6025,
      "77": 6026,
      "but": 6027,
      "ĠBre": 6028,
      "Ġsuccessfully": 6029,
      "ny": 6030,
      "Ġethnic": 6031,
      "Ġflav": 6032,
      "Ġemotions": 6033,
      "Ġhus": 6034,
      "itt": 6035,
      "ĠLong": 6036,
      "ĠOnly": 6037,
      "Ġfixed": 6038,
      "ĠSoviet": 6039,
      "ĠIll": 6040,
      "ĠYet": 6041,
      "Ġshell": 6042,
      "inction": 6043,
      "Ġdoubt": 6044,
      "Ġbear": 6045,
      "Ġlots": 6046,
      "Ġtransmission": 6047,
      "Ġlaun": 6048,
      "âĢĻ,": 6049,
      "Ġmulti": 6050,
      "See": 6051,
      "Ġthor": 6052,
      "Ġstudying": 6053,
      "Ġ>": 6054,
      "Ġ500": 6055,
      "Ġfossil": 6056,
      "Ġenable": 6057,
      "Ġintervention": 6058,
      "igation": 6059,
      "Ġstomach": 6060,
      "Ġopposite": 6061,
      "Ġfly": 6062,
      "Ġoptim": 6063,
      "ĠMa": 6064,
      "Ġinsects": 6065,
      "ribed": 6066,
      "ĠDan": 6067,
      "ĠVict": 6068,
      "Ġcritic": 6069,
      "Ġgreatly": 6070,
      "Ġgrav": 6071,
      "Ġindicates": 6072,
      "Ġpermanent": 6073,
      "Read": 6074,
      "Ġsignals": 6075,
      "ocracy": 6076,
      "from": 6077,
      "Ġnewsp": 6078,
      "ĠChic": 6079,
      "Ġprotocol": 6080,
      "Ġcircuit": 6081,
      "inity": 6082,
      "Ġwww": 6083,
      "wing": 6084,
      "Ġsod": 6085,
      "Ġmanaged": 6086,
      "Ġuns": 6087,
      "arant": 6088,
      "Ġdescription": 6089,
      "Ġ1970": 6090,
      "Ġsharing": 6091,
      "Ġsky": 6092,
      "Ġ1998": 6093,
      "Ġdifficulty": 6094,
      "hma": 6095,
      "ĠLab": 6096,
      "ĠSk": 6097,
      "ĠDisease": 6098,
      "Ġwish": 6099,
      "Cont": 6100,
      "Ġyield": 6101,
      "Ġlaboratory": 6102,
      "Se": 6103,
      "Ġmarked": 6104,
      "Ġboost": 6105,
      "Ġtraum": 6106,
      "hand": 6107,
      "ĠReport": 6108,
      "Ġrepresented": 6109,
      "Ġreplaced": 6110,
      "Ġinteraction": 6111,
      "edu": 6112,
      "Ġsimpl": 6113,
      "oned": 6114,
      "eper": 6115,
      "Ġimplementation": 6116,
      "Ġmechanism": 6117,
      "ĠRad": 6118,
      "Ġdin": 6119,
      "inking": 6120,
      "lets": 6121,
      "ĠAustralian": 6122,
      "Ġresponses": 6123,
      "Ġcolour": 6124,
      "ifications": 6125,
      "Ġratio": 6126,
      "Ġultimately": 6127,
      "riting": 6128,
      "gu": 6129,
      "cel": 6130,
      "ĠBank": 6131,
      "Ġcart": 6132,
      "Ġorganized": 6133,
      "Ġdaughter": 6134,
      "Ġunp": 6135,
      "ctive": 6136,
      "Ġauthorities": 6137,
      "ĠPub": 6138,
      "Ġcomposition": 6139,
      "Ġcultures": 6140,
      "stein": 6141,
      "ĠMad": 6142,
      "Ġwitness": 6143,
      "Ġraw": 6144,
      "Ġ300": 6145,
      "itan": 6146,
      "kes": 6147,
      "Ġdedicated": 6148,
      "Ġmixed": 6149,
      "ĠWhe": 6150,
      "Ġpron": 6151,
      "Ġfasc": 6152,
      "Ġinstitution": 6153,
      "Ġcarefully": 6154,
      "Ġcoffee": 6155,
      "Ġmolecules": 6156,
      "Ġthousand": 6157,
      "Ġprincip": 6158,
      "Ġfiber": 6159,
      "Ġoutl": 6160,
      "ĠStat": 6161,
      "agon": 6162,
      "Ġdesire": 6163,
      "Ġcalcium": 6164,
      "Ġsight": 6165,
      "Ġbio": 6166,
      "Ġvessels": 6167,
      "itudes": 6168,
      "Ġdebate": 6169,
      "hop": 6170,
      "ĠRome": 6171,
      "Ġunable": 6172,
      "Ġhandle": 6173,
      "Ġ189": 6174,
      "Ġinner": 6175,
      "Ġdownload": 6176,
      "Ġpreval": 6177,
      "Ġmac": 6178,
      "Ġarrived": 6179,
      "ena": 6180,
      "reland": 6181,
      "ĠIP": 6182,
      "Ġshift": 6183,
      "Ġdensity": 6184,
      "orses": 6185,
      "ĠStep": 6186,
      "ĠNatural": 6187,
      "ĠSouthern": 6188,
      "Ġphilosophy": 6189,
      "Ġattend": 6190,
      "Ġlimits": 6191,
      "Ġconstitution": 6192,
      "Ġnine": 6193,
      "Ġremark": 6194,
      "phone": 6195,
      "rine": 6196,
      "Ġconsumers": 6197,
      "ĠCommittee": 6198,
      "gans": 6199,
      "izer": 6200,
      "level": 6201,
      "ivery": 6202,
      "Ġdestroyed": 6203,
      "Ġimmediate": 6204,
      "Ġcutting": 6205,
      "Ġnecessarily": 6206,
      "Ġourselves": 6207,
      "Ġregulations": 6208,
      "ĠCult": 6209,
      "Ġacknow": 6210,
      "usal": 6211,
      "Ġyounger": 6212,
      "ront": 6213,
      "Ġpurchase": 6214,
      "word": 6215,
      "Ġcloser": 6216,
      "abul": 6217,
      "ints": 6218,
      "Not": 6219,
      "then": 6220,
      "Ġgone": 6221,
      "ĠHall": 6222,
      "Ġroof": 6223,
      "Ġsentence": 6224,
      "Ġconventional": 6225,
      "iology": 6226,
      "aped": 6227,
      "zil": 6228,
      "Ġwalking": 6229,
      "Ġmarried": 6230,
      "Ġtea": 6231,
      "iration": 6232,
      "Ġcholesterol": 6233,
      "Ġreserv": 6234,
      "ictionary": 6235,
      "Ġacids": 6236,
      "itative": 6237,
      "Ġhighlight": 6238,
      "Ġcomparison": 6239,
      "wo": 6240,
      "ĠGet": 6241,
      "Ġmild": 6242,
      "ĠCamp": 6243,
      "ĠKh": 6244,
      "Ġpersist": 6245,
      "Ġlifestyle": 6246,
      "Ġregist": 6247,
      "LE": 6248,
      "antly": 6249,
      "Ġwriter": 6250,
      "Ġfewer": 6251,
      "Ġchosen": 6252,
      "âĢĺ": 6253,
      "Ġvoc": 6254,
      "ĠStudy": 6255,
      "Ġends": 6256,
      "azing": 6257,
      "ĠHome": 6258,
      "ĠExper": 6259,
      "Ġnerve": 6260,
      "ĠâĢ¢": 6261,
      "ribe": 6262,
      "fortunately": 6263,
      "Ġlisten": 6264,
      "Ġalle": 6265,
      "ĠExp": 6266,
      "ĠISBN": 6267,
      "Ġsupporting": 6268,
      "Ġcommunicate": 6269,
      "ĠAdd": 6270,
      "Figure": 6271,
      "rating": 6272,
      "elled": 6273,
      "ipping": 6274,
      "Ġbiggest": 6275,
      "stone": 6276,
      "Since": 6277,
      "umes": 6278,
      "atal": 6279,
      "Stud": 6280,
      "ita": 6281,
      "Ġfeeding": 6282,
      "Ġrid": 6283,
      "Ġbreathing": 6284,
      "ĠCa": 6285,
      "Ġcolleagues": 6286,
      "Ġagency": 6287,
      "Ġneck": 6288,
      "Ġhabits": 6289,
      "Ġelectron": 6290,
      "cher": 6291,
      "Ġbrand": 6292,
      "Ġjoin": 6293,
      "Ġfalse": 6294,
      "Ġreader": 6295,
      "rd": 6296,
      "ĠEth": 6297,
      "tering": 6298,
      "stract": 6299,
      "ĠOcean": 6300,
      "tra": 6301,
      "Ġcomments": 6302,
      "Ġfounded": 6303,
      "Ġsucceed": 6304,
      "irty": 6305,
      "Ġexists": 6306,
      "inson": 6307,
      "Ġparalle": 6308,
      "Ġevaluation": 6309,
      "Ġstanding": 6310,
      "Ġunus": 6311,
      "isters": 6312,
      "Ġregul": 6313,
      "ĠClin": 6314,
      "Ġdioxide": 6315,
      "Ġstands": 6316,
      "Ġmachines": 6317,
      "Ġuniversity": 6318,
      "Ġaccum": 6319,
      "Ġtank": 6320,
      "zed": 6321,
      "Ġhero": 6322,
      "Ġsupplies": 6323,
      "Ġfabric": 6324,
      "Ġoccasion": 6325,
      "rus": 6326,
      "ĠIreland": 6327,
      "ĠVis": 6328,
      "heast": 6329,
      "Ġunderlying": 6330,
      "ĠRob": 6331,
      "ĠAdminist": 6332,
      "Ġoverl": 6333,
      "Ġconcrete": 6334,
      "Ġphotograph": 6335,
      "ĠMag": 6336,
      "Ġaccident": 6337,
      "Ġfighting": 6338,
      "Ġsubs": 6339,
      "Ġpup": 6340,
      "Ġclust": 6341,
      "Ġax": 6342,
      "ĠForm": 6343,
      "Ġtwenty": 6344,
      "ĠItaly": 6345,
      "Ġhydrogen": 6346,
      "Ġinstructions": 6347,
      "Ġgluc": 6348,
      "Ġserver": 6349,
      "Ġbehaviors": 6350,
      "Ġtransportation": 6351,
      "Ġwilling": 6352,
      "Ġattached": 6353,
      "Ġarchitecture": 6354,
      "Ġrelax": 6355,
      "ella": 6356,
      "Ġzone": 6357,
      "American": 6358,
      "Ġfeedback": 6359,
      "Ġwhatever": 6360,
      "Ġsupports": 6361,
      "inating": 6362,
      "Ġparticipate": 6363,
      "Ġhoriz": 6364,
      "ĠSol": 6365,
      "uts": 6366,
      "ĠDet": 6367,
      "ĠFort": 6368,
      "riers": 6369,
      "Ġknows": 6370,
      "Ġeld": 6371,
      "irds": 6372,
      "ĠCarolina": 6373,
      "bour": 6374,
      "En": 6375,
      "uh": 6376,
      "Ġpresentation": 6377,
      "orous": 6378,
      "Ġdebt": 6379,
      "ĠExt": 6380,
      "ĠCancer": 6381,
      "Ġdrawing": 6382,
      "Ġinhib": 6383,
      "Ġkit": 6384,
      "Ġ185": 6385,
      "Ġturns": 6386,
      "ora": 6387,
      "Ġpercentage": 6388,
      "ĠColor": 6389,
      "ĠMill": 6390,
      "ĠOh": 6391,
      "Ġgrew": 6392,
      "ocy": 6393,
      "Ġcontained": 6394,
      "earchers": 6395,
      "Ġveter": 6396,
      "ĠValley": 6397,
      "Ġhousing": 6398,
      "iratory": 6399,
      "called": 6400,
      "bridge": 6401,
      "top": 6402,
      "rovers": 6403,
      "sey": 6404,
      "Ġdent": 6405,
      "Ġimprovement": 6406,
      "arn": 6407,
      "Ġrecognition": 6408,
      "roduction": 6409,
      "Ġnoise": 6410,
      "Ġtaste": 6411,
      "Ġpowers": 6412,
      "ĠRevolution": 6413,
      "Ġ1960": 6414,
      "Ġartificial": 6415,
      "ĠCop": 6416,
      "Ġwhereas": 6417,
      "ifest": 6418,
      "UN": 6419,
      "Ġcustomers": 6420,
      "Ġsmoking": 6421,
      "ĠTime": 6422,
      "IP": 6423,
      "cycl": 6424,
      "utch": 6425,
      "LA": 6426,
      "Can": 6427,
      "Ġcontamin": 6428,
      "ĠRichard": 6429,
      "Ġtrained": 6430,
      "anta": 6431,
      "Ġeastern": 6432,
      "ĠNorthern": 6433,
      "Ġships": 6434,
      "Ġequivalent": 6435,
      "Ġvote": 6436,
      "Ġcats": 6437,
      "ĠGal": 6438,
      "CD": 6439,
      "such": 6440,
      "ih": 6441,
      "irus": 6442,
      "Ġorganisms": 6443,
      "ĠForest": 6444,
      "Ġlies": 6445,
      "Ġterritory": 6446,
      "Ġlaunch": 6447,
      "Ġcompounds": 6448,
      "Ġvulnerable": 6449,
      "Ġrising": 6450,
      "fish": 6451,
      "Ġcrow": 6452,
      "ults": 6453,
      "Ġbeliefs": 6454,
      "Ġtall": 6455,
      "Ġconfidence": 6456,
      "ĠPenn": 6457,
      "Ġprogramming": 6458,
      "Ġrhy": 6459,
      "omic": 6460,
      "Ġmechanisms": 6461,
      "Bl": 6462,
      "Ġrelation": 6463,
      "ditional": 6464,
      "Ġrefuge": 6465,
      "Ġbread": 6466,
      "________": 6467,
      "yles": 6468,
      "ĠAS": 6469,
      "Ġ36": 6470,
      "Pe": 6471,
      "Ã³": 6472,
      "ĠSpain": 6473,
      "Ġmagnetic": 6474,
      "Ġconclusion": 6475,
      "irt": 6476,
      "Ġinstruments": 6477,
      "comm": 6478,
      "Ġcm": 6479,
      "ctor": 6480,
      "Ġresulted": 6481,
      "ĠAcademy": 6482,
      "Ġlegs": 6483,
      "hav": 6484,
      "79": 6485,
      "ione": 6486,
      "Ġshop": 6487,
      "IG": 6488,
      "ĠEnd": 6489,
      "Ġemployment": 6490,
      "Ġdemonstrated": 6491,
      "Ġjoined": 6492,
      "Ġpair": 6493,
      "Ġadministr": 6494,
      "Ġtrials": 6495,
      "Ġobservations": 6496,
      "ĠSciences": 6497,
      "Ġgreenhouse": 6498,
      "Ġastr": 6499,
      "ĠPan": 6500,
      "Ġhypothes": 6501,
      "05": 6502,
      "cture": 6503,
      "ĠClimate": 6504,
      "Ġ1997": 6505,
      "Ġepid": 6506,
      "Ġdistur": 6507,
      "pet": 6508,
      "Ġfu": 6509,
      "Ġstroke": 6510,
      "Ġvariable": 6511,
      "Ġpool": 6512,
      "Ġru": 6513,
      "42": 6514,
      "ĠNative": 6515,
      "Ġconnections": 6516,
      "Ġborder": 6517,
      "Ġreactions": 6518,
      "Ġrow": 6519,
      "Ġfunctional": 6520,
      "usiness": 6521,
      "Ġfract": 6522,
      "Ġcamera": 6523,
      "ĠHave": 6524,
      "ĠPM": 6525,
      "Ġsupposed": 6526,
      "Ġshut": 6527,
      "bra": 6528,
      "while": 6529,
      "ĠChicago": 6530,
      "abled": 6531,
      "ĠAgricult": 6532,
      "Ġahead": 6533,
      "icious": 6534,
      "tic": 6535,
      "eless": 6536,
      "Ġshot": 6537,
      "Ġstable": 6538,
      "ĠPract": 6539,
      "VID": 6540,
      "Let": 6541,
      "Ġfunds": 6542,
      "Ġentry": 6543,
      "Ġcompetition": 6544,
      "Ġfrequent": 6545,
      "Ġteen": 6546,
      "Ġpsychological": 6547,
      "ĠWood": 6548,
      "ĠKeep": 6549,
      "ĠBoard": 6550,
      "Ġprev": 6551,
      "ĠRoyal": 6552,
      "Ġment": 6553,
      "BS": 6554,
      "teen": 6555,
      "Ġvirtual": 6556,
      "Ġprove": 6557,
      "Ġmeth": 6558,
      "Ġath": 6559,
      "DP": 6560,
      "ĠCap": 6561,
      "Ġhem": 6562,
      "ĠGard": 6563,
      "Ġdepartment": 6564,
      "Ġpartner": 6565,
      "ĠTimes": 6566,
      "Ġchrom": 6567,
      "ritis": 6568,
      "ĠWik": 6569,
      "Ġobesity": 6570,
      "Ġlayers": 6571,
      "icon": 6572,
      "uter": 6573,
      "Ġguarant": 6574,
      "Ġpolitics": 6575,
      "Ġmice": 6576,
      "ĠEss": 6577,
      "ĠScot": 6578,
      "struction": 6579,
      "oding": 6580,
      "ĠWhere": 6581,
      "xts": 6582,
      "Â·": 6583,
      "Ġinsurance": 6584,
      "Ġgenerations": 6585,
      "Ġresolution": 6586,
      "Ġdelay": 6587,
      "Ġswim": 6588,
      "Ġdiagnosed": 6589,
      "Ġcrime": 6590,
      "Ġzero": 6591,
      "ugh": 6592,
      "Ġexamine": 6593,
      "Ġnearby": 6594,
      "ĠBrown": 6595,
      "43": 6596,
      "Ġpra": 6597,
      "Ġbot": 6598,
      "plant": 6599,
      "hered": 6600,
      "Ġflo": 6601,
      "ups": 6602,
      "ĠEmpire": 6603,
      "een": 6604,
      "Ġcapture": 6605,
      "ĠDiff": 6606,
      "Ġmand": 6607,
      "Ġissued": 6608,
      "anches": 6609,
      "ĠMichael": 6610,
      "Ġwasn": 6611,
      "weight": 6612,
      "Ġexplo": 6613,
      "Ġpositions": 6614,
      "Ġpainting": 6615,
      "erior": 6616,
      "Ġestimates": 6617,
      "ediatric": 6618,
      "isk": 6619,
      "asters": 6620,
      "etime": 6621,
      "ether": 6622,
      "66": 6623,
      "raining": 6624,
      "igned": 6625,
      "cons": 6626,
      "how": 6627,
      "Ġlaunched": 6628,
      "ĠScott": 6629,
      "88": 6630,
      "Ġthy": 6631,
      "Ġobjective": 6632,
      "Ġdemonstrate": 6633,
      "Ġmaps": 6634,
      "espread": 6635,
      "Ġcarb": 6636,
      "Ġsole": 6637,
      "Ġprompt": 6638,
      "aph": 6639,
      "Ġsmoke": 6640,
      "Ġmode": 6641,
      "itter": 6642,
      "aked": 6643,
      "ĠGeorg": 6644,
      "ymph": 6645,
      "01": 6646,
      "Ġsubstances": 6647,
      "onia": 6648,
      "Ġindustries": 6649,
      "Ġmaintaining": 6650,
      "itely": 6651,
      "Ġdefine": 6652,
      "Ġmos": 6653,
      "ittle": 6654,
      "Ġdefe": 6655,
      "ĠIndians": 6656,
      "Ġscript": 6657,
      "Ġrecept": 6658,
      "Ġputting": 6659,
      "Ġcryst": 6660,
      "Ġspending": 6661,
      "Ġmembr": 6662,
      "Ġmatters": 6663,
      "Ġscan": 6664,
      "Ġsacr": 6665,
      "hesis": 6666,
      "Ġindependence": 6667,
      "Ġparticipation": 6668,
      "esis": 6669,
      "Ġtrip": 6670,
      "Of": 6671,
      "Ġexplanation": 6672,
      "Ġfever": 6673,
      "earing": 6674,
      "Ġoperate": 6675,
      "everal": 6676,
      "eenth": 6677,
      "aine": 6678,
      "Ġmarkets": 6679,
      "Le": 6680,
      "ĠStr": 6681,
      "Ġcategories": 6682,
      "Ġdelivery": 6683,
      "Ġ75": 6684,
      "ala": 6685,
      "Ġgap": 6686,
      "Ġreven": 6687,
      "Ġchick": 6688,
      "ĠGuide": 6689,
      "Ġchallenging": 6690,
      "Ġarrange": 6691,
      "Ġpoison": 6692,
      "Ġbanks": 6693,
      "Ġundert": 6694,
      "ĠCreat": 6695,
      "Ġscene": 6696,
      "iah": 6697,
      "Ã¶": 6698,
      "Ġnest": 6699,
      "41": 6700,
      "Ġlegislation": 6701,
      "Ġsettings": 6702,
      "Ġdoi": 6703,
      "Ġdanger": 6704,
      "ourage": 6705,
      "Ġ1996": 6706,
      "Ġspok": 6707,
      "Ġinteractions": 6708,
      "Ġvs": 6709,
      "ĠLanguage": 6710,
      "Ġsurve": 6711,
      "Ġforth": 6712,
      "occ": 6713,
      "Ġeveryday": 6714,
      "gov": 6715,
      "Ġassociation": 6716,
      "Ġsections": 6717,
      "ishment": 6718,
      "Ġvoltage": 6719,
      "ML": 6720,
      "Ġpapers": 6721,
      "Ġmatch": 6722,
      "Ġhur": 6723,
      "ĠSing": 6724,
      "yth": 6725,
      "dule": 6726,
      "Ġconsumer": 6727,
      "ĠFree": 6728,
      "IA": 6729,
      "Ġusage": 6730,
      "Ġoblig": 6731,
      "Ġstimul": 6732,
      "Ġpassage": 6733,
      "ĠBrazil": 6734,
      "Ġbutter": 6735,
      "ading": 6736,
      "ĠBab": 6737,
      "Ġmeal": 6738,
      "Ġemployed": 6739,
      "ĠHoly": 6740,
      "itivity": 6741,
      "umps": 6742,
      "Ġblocks": 6743,
      "Ġroute": 6744,
      "inally": 6745,
      "Ġbiod": 6746,
      "Ġbridge": 6747,
      "Ġadequate": 6748,
      "Ġinvolving": 6749,
      "Ġaward": 6750,
      "ĠEarly": 6751,
      "Ġplayers": 6752,
      "scale": 6753,
      "Ġexpansion": 6754,
      "ĠItalian": 6755,
      "%)": 6756,
      "Ġnone": 6757,
      "car": 6758,
      "fit": 6759,
      "Ġfashion": 6760,
      "Ġbond": 6761,
      "First": 6762,
      "urrent": 6763,
      "Ġindicated": 6764,
      "Ġsmooth": 6765,
      "Ġforget": 6766,
      "ployment": 6767,
      "osion": 6768,
      "Ġhole": 6769,
      "Ġexercises": 6770,
      "Ġblow": 6771,
      "Ġcovers": 6772,
      "Ġoutbre": 6773,
      "ĠâĨ": 6774,
      "Ġcontrols": 6775,
      "ighter": 6776,
      "Ġholding": 6777,
      "she": 6778,
      "Ġrig": 6779,
      "Ġframe": 6780,
      "Ġdrawn": 6781,
      "ĠVictor": 6782,
      "Ġ150": 6783,
      "ureau": 6784,
      "Ġ1995": 6785,
      "Ġcolumn": 6786,
      "Ġagreed": 6787,
      "azine": 6788,
      "ĠIII": 6789,
      "Ġholds": 6790,
      "ĠDig": 6791,
      "Ġflag": 6792,
      "Ġended": 6793,
      "Ġinsulin": 6794,
      "Ġcounty": 6795,
      "Ġstring": 6796,
      "aud": 6797,
      "Ġaccessible": 6798,
      "Ġfold": 6799,
      "Ġstreet": 6800,
      "Ġdepart": 6801,
      "Ġcommitted": 6802,
      "Ġtissues": 6803,
      "OC": 6804,
      "Ġring": 6805,
      "Ġtexts": 6806,
      "Ġinstalled": 6807,
      "Ġphysics": 6808,
      "Ġburning": 6809,
      "ulty": 6810,
      "ortion": 6811,
      "mes": 6812,
      "Ġvolcan": 6813,
      "Ġruns": 6814,
      "Ġsheet": 6815,
      "Ġrank": 6816,
      "Ġ32": 6817,
      "Ġbreath": 6818,
      "Ġreliable": 6819,
      "RC": 6820,
      "Ġongoing": 6821,
      "ĠBig": 6822,
      "Ġvac": 6823,
      "nect": 6824,
      "ocation": 6825,
      "ented": 6826,
      "Ġintellectual": 6827,
      "Ġcards": 6828,
      "Ġwidespread": 6829,
      "Ġshif": 6830,
      "oven": 6831,
      "Ġkidney": 6832,
      "Ġearn": 6833,
      "idity": 6834,
      "Ġmoisture": 6835,
      "Ġbrings": 6836,
      "Ġenemy": 6837,
      "ĠEastern": 6838,
      "Ġmeters": 6839,
      "Ġsomewhat": 6840,
      "Ġneither": 6841,
      "Ġrice": 6842,
      "rooms": 6843,
      "ĠCre": 6844,
      "Ġnob": 6845,
      "Ġdamaged": 6846,
      "Ġartists": 6847,
      "Ġelectro": 6848,
      "Ġapproved": 6849,
      "ĠDar": 6850,
      "Ġorgans": 6851,
      "Ġcentre": 6852,
      "Ġmm": 6853,
      "Your": 6854,
      "Ġdivision": 6855,
      "alls": 6856,
      "Ġfulf": 6857,
      "Ġmanip": 6858,
      "Ġspaces": 6859,
      "Ġtrouble": 6860,
      "ĠParty": 6861,
      "Ġconven": 6862,
      "RA": 6863,
      "Ġminerals": 6864,
      "Ġhun": 6865,
      "ĠMer": 6866,
      "rite": 6867,
      "Ġreceiving": 6868,
      "Ġlegisl": 6869,
      "Ġconstructed": 6870,
      "Ġtight": 6871,
      "Ġloved": 6872,
      "Ġhusband": 6873,
      "oples": 6874,
      "ĠAccess": 6875,
      "Ġbabies": 6876,
      "etics": 6877,
      "Ġelection": 6878,
      "Ġdestruction": 6879,
      "Ġrelief": 6880,
      "Ġtons": 6881,
      "ushed": 6882,
      "Ġaband": 6883,
      "Ġille": 6884,
      "Ġcav": 6885,
      "Int": 6886,
      "Ġrivers": 6887,
      "Ġhonor": 6888,
      "Ġblind": 6889,
      "orph": 6890,
      "Ġconstantly": 6891,
      "Ġmicros": 6892,
      "IM": 6893,
      "Ġworry": 6894,
      "ĠProp": 6895,
      "Ġske": 6896,
      "Ġestimate": 6897,
      "Ġintegrated": 6898,
      "Ġgram": 6899,
      "Ġcontrovers": 6900,
      "kins": 6901,
      "Ġmissing": 6902,
      "otton": 6903,
      "Ġcup": 6904,
      "Ġstrongly": 6905,
      "Ġphoto": 6906,
      "rial": 6907,
      "making": 6908,
      "Ġhorses": 6909,
      "Ġkne": 6910,
      "utrition": 6911,
      "Ġasking": 6912,
      "ĠAcc": 6913,
      "ĠIrish": 6914,
      "Ġdomain": 6915,
      "Ġholid": 6916,
      "ibl": 6917,
      "Ġsignificance": 6918,
      "estion": 6919,
      "Ġhistoric": 6920,
      "ĠTake": 6921,
      "osc": 6922,
      "ĠEU": 6923,
      "ĠServices": 6924,
      "ĠFace": 6925,
      "ady": 6926,
      "reek": 6927,
      "Ġrepair": 6928,
      "pan": 6929,
      "85": 6930,
      "Ġboy": 6931,
      "icit": 6932,
      "Ġmood": 6933,
      "Ġentered": 6934,
      "Ġfurn": 6935,
      "Ġneur": 6936,
      "hent": 6937,
      "Ġreduces": 6938,
      "OL": 6939,
      "Ġdeclared": 6940,
      "ĠAge": 6941,
      "sue": 6942,
      "Ġintense": 6943,
      "Ġwait": 6944,
      "ĠFamily": 6945,
      "ĠBefore": 6946,
      "Ġvictims": 6947,
      "htt": 6948,
      "Ġrecommendations": 6949,
      "Ġoffering": 6950,
      "abulary": 6951,
      "liest": 6952,
      "Ġviruses": 6953,
      "herent": 6954,
      "Ġrenewable": 6955,
      "Ġseeking": 6956,
      "71": 6957,
      "Ġpharm": 6958,
      "idential": 6959,
      "Ġfer": 6960,
      "quit": 6961,
      "Ġrealize": 6962,
      "gical": 6963,
      "Ġpreparation": 6964,
      "Ġcriteria": 6965,
      "Ġcomposed": 6966,
      "Ġcompare": 6967,
      "Ġtub": 6968,
      "Ġorient": 6969,
      "Ġnegot": 6970,
      "ĠAtlantic": 6971,
      "rene": 6972,
      "Ġproportion": 6973,
      "Ġcenters": 6974,
      "Ġfavorite": 6975,
      "rey": 6976,
      "Ġfemales": 6977,
      "Ġbeings": 6978,
      "Ġseemed": 6979,
      "ĠMartin": 6980,
      "Ġwithd": 6981,
      "Ġforg": 6982,
      "ĠSil": 6983,
      "Ġcalories": 6984,
      "arsh": 6985,
      "Ġfacility": 6986,
      "Ġearthqu": 6987,
      "Ġbath": 6988,
      "Ġdistributed": 6989,
      "elesc": 6990,
      "Ġturning": 6991,
      "Qu": 6992,
      "ĠEqu": 6993,
      "Ġrespectively": 6994,
      "Ġmortality": 6995,
      "operation": 6996,
      "SS": 6997,
      "Ġcoastal": 6998,
      "sis": 6999,
      "ĠKingdom": 7000,
      "Ġconversation": 7001,
      "Once": 7002,
      "net": 7003,
      "Ġmeasurement": 7004,
      "Over": 7005,
      "gs": 7006,
      "Ġpublication": 7007,
      "Ġdollars": 7008,
      "Ġmeasurements": 7009,
      "igan": 7010,
      "Ġcategory": 7011,
      "Ġannounced": 7012,
      "Ġdesigns": 7013,
      "Ġbeauty": 7014,
      "alm": 7015,
      "Ġvariables": 7016,
      "Ġstre": 7017,
      "Rec": 7018,
      "Ġrely": 7019,
      "Ġmechanical": 7020,
      "Lear": 7021,
      "Ġnervous": 7022,
      "Don": 7023,
      "Ġengaged": 7024,
      "Ġtheories": 7025,
      "example": 7026,
      "ĠPlant": 7027,
      "Ġthanks": 7028,
      "Ġmales": 7029,
      "Ġexamination": 7030,
      "ĠResources": 7031,
      "Ġglucose": 7032,
      "Ġ65": 7033,
      "Ġevaluate": 7034,
      "Ġsurfaces": 7035,
      "Ġmining": 7036,
      "Ġmerely": 7037,
      "ĠPop": 7038,
      "va": 7039,
      "Ġplus": 7040,
      "gers": 7041,
      "Ġcomplicated": 7042,
      "Ġoutcome": 7043,
      "Ġmaintained": 7044,
      "Ġboys": 7045,
      "Ġfro": 7046,
      "ĠCy": 7047,
      "ani": 7048,
      "%.": 7049,
      "Ġadvert": 7050,
      "ĠHill": 7051,
      "yal": 7052,
      "aded": 7053,
      "ĠAdv": 7054,
      "agram": 7055,
      "Ġtheore": 7056,
      "Ġroles": 7057,
      "ĠYear": 7058,
      "Ġparallel": 7059,
      "ĠTV": 7060,
      "ĠLib": 7061,
      "cyclop": 7062,
      "Ġofficers": 7063,
      "Ġsought": 7064,
      "orders": 7065,
      "Ġstrict": 7066,
      "Ġplenty": 7067,
      "rary": 7068,
      "Even": 7069,
      "sts": 7070,
      "Ġincred": 7071,
      "Ġwound": 7072,
      "ivered": 7073,
      "ĠThough": 7074,
      "ĠTeac": 7075,
      "Ġowner": 7076,
      "Ġconsidering": 7077,
      "medi": 7078,
      "ĠOpen": 7079,
      "Ġfacing": 7080,
      "ĠSometimes": 7081,
      "acco": 7082,
      "ĠEffect": 7083,
      "ĠSat": 7084,
      "esides": 7085,
      "Ġphotos": 7086,
      "IDS": 7087,
      "Ġcollaboration": 7088,
      "ĠAgency": 7089,
      "thritis": 7090,
      "pes": 7091,
      "Ġtheme": 7092,
      "Ġcrim": 7093,
      "Ġfourth": 7094,
      "ĠWord": 7095,
      "isdom": 7096,
      "rency": 7097,
      "Ġtract": 7098,
      "AA": 7099,
      "Ġangle": 7100,
      "hyd": 7101,
      "Ġarchae": 7102,
      "amins": 7103,
      "UT": 7104,
      "Ġweapons": 7105,
      "Ġarts": 7106,
      "ĠSup": 7107,
      "iability": 7108,
      "rane": 7109,
      "ĠMoreover": 7110,
      "Ġdys": 7111,
      "ĠSpecial": 7112,
      "Ġparas": 7113,
      "ĠOxford": 7114,
      "Ġrocks": 7115,
      "Ġinfluenced": 7116,
      "oln": 7117,
      "Ġpregnant": 7118,
      "ĠRom": 7119,
      "health": 7120,
      "Ġrarely": 7121,
      "oir": 7122,
      "ipedia": 7123,
      "Ġtransp": 7124,
      "ano": 7125,
      "Ġagents": 7126,
      "Because": 7127,
      "Ġsatellite": 7128,
      "73": 7129,
      "Ġpounds": 7130,
      "ĠZeal": 7131,
      "Ġescape": 7132,
      "Ġartist": 7133,
      "Me": 7134,
      "Ġdose": 7135,
      "peror": 7136,
      "apse": 7137,
      "Ġintest": 7138,
      "Ġarrest": 7139,
      "Ġaccuracy": 7140,
      "ĠWho": 7141,
      "ĠAsian": 7142,
      "ixture": 7143,
      "Ġtube": 7144,
      "Ġadvantages": 7145,
      "ĠAP": 7146,
      "Ġcompris": 7147,
      "Ġfarming": 7148,
      "Ġguidance": 7149,
      "Ġprohib": 7150,
      "Ġdependent": 7151,
      "Ġdetection": 7152,
      "ĠAND": 7153,
      "Ġbreeding": 7154,
      "Ġpush": 7155,
      "Ġscore": 7156,
      "Ġpreventing": 7157,
      "Ġteams": 7158,
      "Ġproof": 7159,
      "ĠNaz": 7160,
      "ĠPolic": 7161,
      "ĠHeb": 7162,
      "Ġtemple": 7163,
      "olving": 7164,
      "ĠCommunity": 7165,
      "Ġcontemporary": 7166,
      "Ġmoves": 7167,
      "aska": 7168,
      "Ġshock": 7169,
      "Ġcommission": 7170,
      "Ġislands": 7171,
      "greg": 7172,
      "forcement": 7173,
      "heimer": 7174,
      "Ġclothing": 7175,
      "sen": 7176,
      "roat": 7177,
      "Ġped": 7178,
      "Ġuncertain": 7179,
      "fl": 7180,
      "oom": 7181,
      "Ġid": 7182,
      "ĠList": 7183,
      "Ġattempts": 7184,
      "itamin": 7185,
      "ĠTop": 7186,
      "rowing": 7187,
      "Ġbringing": 7188,
      "ĠHy": 7189,
      "Ġmessages": 7190,
      "iox": 7191,
      "Ġdiscrimination": 7192,
      "Ġcaptured": 7193,
      "'m": 7194,
      "ĠCheck": 7195,
      "Ġdesired": 7196,
      "aning": 7197,
      "Ġsession": 7198,
      "Ġdischar": 7199,
      "Ġphenomenon": 7200,
      "airy": 7201,
      "Ġabnormal": 7202,
      "Ġdrain": 7203,
      "Ġinn": 7204,
      "Ġirrit": 7205,
      "eren": 7206,
      "ventions": 7207,
      "Ġacute": 7208,
      "ĠViet": 7209,
      "heric": 7210,
      "Ġimplications": 7211,
      "Ġopposed": 7212,
      "ĠChange": 7213,
      "osh": 7214,
      "ĠYoung": 7215,
      "Ġserving": 7216,
      "ĠSecurity": 7217,
      "Ġfairly": 7218,
      "Ġcircle": 7219,
      "iral": 7220,
      "asty": 7221,
      "Ġseconds": 7222,
      "Ġsigned": 7223,
      "Ġingredients": 7224,
      "Ġcareful": 7225,
      "Ġempt": 7226,
      "ĠZealand": 7227,
      "Ġpassing": 7228,
      "72": 7229,
      "ĠSecret": 7230,
      "Ġabsence": 7231,
      "Ġproven": 7232,
      "ĠDistrict": 7233,
      "ollowing": 7234,
      "aired": 7235,
      "Ġrespiratory": 7236,
      "Ġscreening": 7237,
      "Ġheating": 7238,
      "Ġencouraged": 7239,
      "ĠMel": 7240,
      "Ġguard": 7241,
      "Ġsla": 7242,
      "ĠGrand": 7243,
      "iana": 7244,
      "Ġjump": 7245,
      "itals": 7246,
      "68": 7247,
      "Ġconfirmed": 7248,
      "Ġimplemented": 7249,
      "ailed": 7250,
      "Ġmold": 7251,
      "ommod": 7252,
      "Ġknowing": 7253,
      "bar": 7254,
      "Ġshapes": 7255,
      "Ġgradually": 7256,
      "Ġcarrying": 7257,
      "Ġevil": 7258,
      "Ġinfant": 7259,
      "Ã¢": 7260,
      "Ġclaimed": 7261,
      "Ġimagine": 7262,
      "Ġsubsequent": 7263,
      "ĠPet": 7264,
      "Ġessentially": 7265,
      "Ġwriters": 7266,
      "Ġinher": 7267,
      "Ġcrew": 7268,
      "Ġfung": 7269,
      "Ġpanel": 7270,
      "Ġexcessive": 7271,
      "Ġmetabol": 7272,
      "Ġmolecular": 7273,
      "Ġanalys": 7274,
      "Ġinterpretation": 7275,
      "Ġnose": 7276,
      "ĠFurthermore": 7277,
      "ĠPo": 7278,
      "Ġdelivered": 7279,
      "eness": 7280,
      "Ġbiology": 7281,
      "Ġremoval": 7282,
      "ĠDoes": 7283,
      "Ġprincipal": 7284,
      "Ġ1950": 7285,
      "Ġsoul": 7286,
      "Ġpeak": 7287,
      "Ġoverw": 7288,
      "illa": 7289,
      "Ġaims": 7290,
      "Ġpresents": 7291,
      "Ġbranches": 7292,
      "Ġitem": 7293,
      "Ġouter": 7294,
      "IR": 7295,
      "Ġcombat": 7296,
      "Ġdifficulties": 7297,
      "Ġchlor": 7298,
      "sm": 7299,
      "olesc": 7300,
      "eli": 7301,
      "ĠBill": 7302,
      "Ġclar": 7303,
      "Ġslavery": 7304,
      "74": 7305,
      "Ġstronger": 7306,
      "Ġjudge": 7307,
      "Ġvisitors": 7308,
      "ogether": 7309,
      "ĠDespite": 7310,
      "rous": 7311,
      "Ġplane": 7312,
      "Ġdealing": 7313,
      "class": 7314,
      "Ġconsiderable": 7315,
      "otes": 7316,
      "Ġminute": 7317,
      "Ġ1994": 7318,
      "Ġproceed": 7319,
      "Ġcooking": 7320,
      "Ġdefense": 7321,
      "Ġnewly": 7322,
      "ĠAmong": 7323,
      "Ġinformed": 7324,
      "ĠResp": 7325,
      "Ġformula": 7326,
      "amination": 7327,
      "ĠAdditionally": 7328,
      "Ġedition": 7329,
      "ĠPlease": 7330,
      "ĠCOVID": 7331,
      "Ġunusual": 7332,
      "Ġcomfortable": 7333,
      "Ġeffectiveness": 7334,
      "ĠChristmas": 7335,
      "ĠEp": 7336,
      "ĠAdministration": 7337,
      "Ġcleaning": 7338,
      "Ġequally": 7339,
      "aming": 7340,
      "ĠNon": 7341,
      "Ġstatistics": 7342,
      "action": 7343,
      "Ġracial": 7344,
      "Ġvarieties": 7345,
      "Ġinterpre": 7346,
      "CE": 7347,
      "Ġfocuses": 7348,
      "vard": 7349,
      "Ġflower": 7350,
      "outs": 7351,
      "incoln": 7352,
      "Ġchest": 7353,
      "ĠIndust": 7354,
      "oston": 7355,
      "Ġdisaster": 7356,
      "uality": 7357,
      "Ġfilter": 7358,
      "Ġassume": 7359,
      "Ġworship": 7360,
      "Ġradical": 7361,
      "Ġinsert": 7362,
      "ooking": 7363,
      "Ġtreating": 7364,
      "ohyd": 7365,
      "Ġlie": 7366,
      "Ġplanned": 7367,
      "agraph": 7368,
      "emia": 7369,
      "Ġsilver": 7370,
      "Ġtargets": 7371,
      "ruption": 7372,
      "Ġlake": 7373,
      "ĠRock": 7374,
      "Ġuniversal": 7375,
      "oric": 7376,
      "theless": 7377,
      "including": 7378,
      "Ġmaybe": 7379,
      "ĠCentre": 7380,
      "Ġroads": 7381,
      "Ġproved": 7382,
      "Ġlearners": 7383,
      "Ġlaid": 7384,
      "Ġrab": 7385,
      "Ġmathematics": 7386,
      "ĠDirector": 7387,
      "ovascular": 7388,
      "ĠPak": 7389,
      "Ġtelevision": 7390,
      "ĠAngel": 7391,
      "Ġcriminal": 7392,
      "produ": 7393,
      "Ġclient": 7394,
      "Ġencoun": 7395,
      "Ġconcerning": 7396,
      "lishing": 7397,
      "ĠWindows": 7398,
      "Ġexclus": 7399,
      "Ġcharacterized": 7400,
      "rox": 7401,
      "Ġgut": 7402,
      "tles": 7403,
      "Ġhappening": 7404,
      "ĠCoast": 7405,
      "Ġgained": 7406,
      "Ġremind": 7407,
      "ĠNetwork": 7408,
      "istical": 7409,
      "Ġgalax": 7410,
      "Ġroughly": 7411,
      "Ġdeeper": 7412,
      "ilation": 7413,
      "ĠEr": 7414,
      "Ġ400": 7415,
      "Med": 7416,
      "Ġreward": 7417,
      "ĠDen": 7418,
      "oga": 7419,
      "Or": 7420,
      "Ġdefend": 7421,
      "Ġnitrogen": 7422,
      "Ġgro": 7423,
      "ĠFund": 7424,
      "Ġliteracy": 7425,
      "Ġtut": 7426,
      "essions": 7427,
      "Ġeliminate": 7428,
      "rison": 7429,
      "Ġmicrob": 7430,
      "ĠPrinc": 7431,
      "riend": 7432,
      "Ġfed": 7433,
      "Ġcompound": 7434,
      "Ġfishing": 7435,
      "Ġdecor": 7436,
      "Ġasthma": 7437,
      "Ġassigned": 7438,
      "vin": 7439,
      "bles": 7440,
      "ĠMen": 7441,
      "Ġspectrum": 7442,
      "ĠMD": 7443,
      "ounce": 7444,
      "Ġmineral": 7445,
      "iary": 7446,
      "Ġfalls": 7447,
      "Ġfinished": 7448,
      "Ġbranch": 7449,
      "ĠWorks": 7450,
      "Ġinfect": 7451,
      "Ġholes": 7452,
      "Ġprinted": 7453,
      "ĠBul": 7454,
      "ptions": 7455,
      "Am": 7456,
      "Ġbreed": 7457,
      "ontal": 7458,
      "ĠSir": 7459,
      "ĠFinally": 7460,
      "ĠJac": 7461,
      "Ġsatisf": 7462,
      "Ġmodified": 7463,
      "Ġturb": 7464,
      "Ġcorrel": 7465,
      "Ġintent": 7466,
      "otype": 7467,
      "ograp": 7468,
      "Ġserves": 7469,
      "haust": 7470,
      "Ġpestic": 7471,
      "ĠMS": 7472,
      "Ġstations": 7473,
      "df": 7474,
      "Ġsharp": 7475,
      "adder": 7476,
      "ĠSwed": 7477,
      "Ġusual": 7478,
      "Ġgrain": 7479,
      "Ġcash": 7480,
      "Ġanywhere": 7481,
      "ĠLow": 7482,
      "Ġhealing": 7483,
      "Ġcosm": 7484,
      "rance": 7485,
      "effect": 7486,
      "Ġov": 7487,
      "Ġmarks": 7488,
      "Ġmanifest": 7489,
      "Ġsubstantial": 7490,
      "89": 7491,
      "ĠThree": 7492,
      "Ġcaught": 7493,
      "Ġunw": 7494,
      "Ġinvestigation": 7495,
      "itual": 7496,
      "Ġbigger": 7497,
      "Ġye": 7498,
      "Ġelected": 7499,
      "pling": 7500,
      "Ġinitially": 7501,
      "arents": 7502,
      "ersonal": 7503,
      "Ġtropical": 7504,
      "Ġprominent": 7505,
      "Ġphysician": 7506,
      "Ġamazing": 7507,
      "Ġordered": 7508,
      "ĠColumbia": 7509,
      "amine": 7510,
      "CH": 7511,
      "ĠVer": 7512,
      "Ġtraditions": 7513,
      "abeth": 7514,
      "Ġstead": 7515,
      "Ġerrors": 7516,
      "chen": 7517,
      "Ġneighborhood": 7518,
      "rav": 7519,
      "Ġflour": 7520,
      "ima": 7521,
      "icted": 7522,
      "Ġobserve": 7523,
      "reated": 7524,
      "Ġbomb": 7525,
      "coming": 7526,
      "Ġbees": 7527,
      "Ġcopper": 7528,
      "Su": 7529,
      "Ġdates": 7530,
      "Ġexception": 7531,
      "abb": 7532,
      "riz": 7533,
      "Ġstructural": 7534,
      "Ġscientist": 7535,
      "ĠLar": 7536,
      "atively": 7537,
      "69": 7538,
      "Ġexperimental": 7539,
      "Ġconsideration": 7540,
      "Ġinnovation": 7541,
      "Ġexceed": 7542,
      "Ġexamined": 7543,
      "ĠSund": 7544,
      "Ġsuffered": 7545,
      "ĠFour": 7546,
      "oids": 7547,
      "Ġhazard": 7548,
      "Ġwarning": 7549,
      "Ġdiameter": 7550,
      "sell": 7551,
      "Ġhormone": 7552,
      "Ġsales": 7553,
      "ĠVen": 7554,
      "asm": 7555,
      "MP": 7556,
      "Ġeditor": 7557,
      "ĠOrganization": 7558,
      "Ġwine": 7559,
      "ude": 7560,
      "Ġhoney": 7561,
      "Ġfaced": 7562,
      "Ġdemands": 7563,
      "ĠWall": 7564,
      "Ġgranted": 7565,
      "gence": 7566,
      "Ġscar": 7567,
      "ette": 7568,
      "Ġphosph": 7569,
      "yer": 7570,
      "Ġprovider": 7571,
      "elfare": 7572,
      "vania": 7573,
      "ĠLearn": 7574,
      "Ġpoem": 7575,
      "Ġcham": 7576,
      "oured": 7577,
      "isco": 7578,
      "Ġconfig": 7579,
      "Ġadm": 7580,
      "ishop": 7581,
      "ĠCast": 7582,
      "ĠFigure": 7583,
      "ĠArticle": 7584,
      "Ġtranslation": 7585,
      "orted": 7586,
      "Ġthreats": 7587,
      "Ġcorner": 7588,
      "Ġlights": 7589,
      "ĠJohnson": 7590,
      "unicip": 7591,
      "print": 7592,
      "Ġtrends": 7593,
      "Ġschedule": 7594,
      "ricts": 7595,
      "ĠÐ": 7596,
      "Ġcompens": 7597,
      "Ġsenior": 7598,
      "Ġprinting": 7599,
      "ostic": 7600,
      "Ġtrigger": 7601,
      "Ġrecover": 7602,
      "ĠSign": 7603,
      "Ġplot": 7604,
      "64": 7605,
      "Ġstuff": 7606,
      "Ġvariation": 7607,
      "ĠSuper": 7608,
      "Ġspin": 7609,
      "ĠMoon": 7610,
      "ĠSafety": 7611,
      "Ġdecreased": 7612,
      "Ġterror": 7613,
      "Ġstatements": 7614,
      "ucky": 7615,
      "Ġheavily": 7616,
      "fts": 7617,
      "ĠGr": 7618,
      "Ġvideos": 7619,
      "Ġcomplications": 7620,
      "Ġevolved": 7621,
      "ĠMult": 7622,
      "Ġslaves": 7623,
      "otal": 7624,
      "Ġceremon": 7625,
      "Ġidentification": 7626,
      "Ġorbit": 7627,
      "mers": 7628,
      "Ed": 7629,
      "zheimer": 7630,
      "Ġearliest": 7631,
      "Ġrose": 7632,
      "ustain": 7633,
      "night": 7634,
      "isted": 7635,
      "Every": 7636,
      "ested": 7637,
      "ĠMethod": 7638,
      "just": 7639,
      "Ġperm": 7640,
      "ĠJul": 7641,
      "itarian": 7642,
      "Ġflows": 7643,
      "ultane": 7644,
      "thm": 7645,
      "ali": 7646,
      "HD": 7647,
      "Ġsplit": 7648,
      "ĠHebrew": 7649,
      "semb": 7650,
      "ĠDou": 7651,
      "ĠSupreme": 7652,
      "Ġadds": 7653,
      "Ġkilomet": 7654,
      "Ġstores": 7655,
      "Ġarray": 7656,
      "mm": 7657,
      "Ġconsume": 7658,
      "Ġalter": 7659,
      "icate": 7660,
      "syl": 7661,
      "Ġdriven": 7662,
      "Ġisolated": 7663,
      "Ġengineers": 7664,
      "Ġplayer": 7665,
      "Ġlistening": 7666,
      "Ġdetected": 7667,
      "requ": 7668,
      "Ġsport": 7669,
      "ogs": 7670,
      "Ġregulation": 7671,
      "ĠSar": 7672,
      "Ġinspired": 7673,
      "ĠDev": 7674,
      "Ġconcluded": 7675,
      "Ġaccompan": 7676,
      "Ġmeasuring": 7677,
      "Ġsubt": 7678,
      "iat": 7679,
      "Ġbiom": 7680,
      "Ġrepresentation": 7681,
      "Ġcorrectly": 7682,
      "ieval": 7683,
      "She": 7684,
      "Ġpit": 7685,
      "Ġfest": 7686,
      "Ġaccommod": 7687,
      "ĠIran": 7688,
      "igue": 7689,
      "ĠLo": 7690,
      "Ġmg": 7691,
      "Ġenorm": 7692,
      "Ġconqu": 7693,
      "ENT": 7694,
      "Ġobservation": 7695,
      "ĠJeff": 7696,
      "Ġovercome": 7697,
      "Ġmusical": 7698,
      "Ġstability": 7699,
      "html": 7700,
      "Ġhosp": 7701,
      "Ġwindows": 7702,
      "ĠChristians": 7703,
      "ĠLiter": 7704,
      "Ġgrid": 7705,
      "Ġprocessed": 7706,
      "ĠEst": 7707,
      "08": 7708,
      "Ġagent": 7709,
      "ĠPen": 7710,
      "ĠEngineering": 7711,
      "ĠSimilar": 7712,
      "Ġton": 7713,
      "asant": 7714,
      "Ġsitting": 7715,
      "quir": 7716,
      "ioxid": 7717,
      "Ġindigenous": 7718,
      "ĠUr": 7719,
      "Ġfinds": 7720,
      "onym": 7721,
      "Ġ38": 7722,
      "Ġstrengthen": 7723,
      "eut": 7724,
      "Ġgrows": 7725,
      "ĠTim": 7726,
      "cking": 7727,
      "Comm": 7728,
      "Ġ48": 7729,
      "ĠAuthor": 7730,
      "Ġperception": 7731,
      "Ġidentifying": 7732,
      "icing": 7733,
      "igate": 7734,
      "ĠFacebook": 7735,
      "ĠKar": 7736,
      "Ġpin": 7737,
      "Ġdrought": 7738,
      "Ġheads": 7739,
      "?\"": 7740,
      "Ġcounsel": 7741,
      "ĠOhio": 7742,
      "Ġdisrupt": 7743,
      "Ġautism": 7744,
      "Ġconj": 7745,
      "ĠFather": 7746,
      "Ġdisabilities": 7747,
      "Ġdynamic": 7748,
      "ĠType": 7749,
      "Ġmountains": 7750,
      "Ġconference": 7751,
      "soft": 7752,
      "Ġreveal": 7753,
      "Ġacres": 7754,
      "rays": 7755,
      "Comp": 7756,
      "iological": 7757,
      "Ġgiant": 7758,
      "opes": 7759,
      "otherapy": 7760,
      "Ġbrows": 7761,
      "atial": 7762,
      "Ġsus": 7763,
      "Ġautomatically": 7764,
      "Ġcattle": 7765,
      "Ġnice": 7766,
      "Ġcontribution": 7767,
      "Ġsuperior": 7768,
      "Ġreaching": 7769,
      "Ġsup": 7770,
      "etary": 7771,
      "ĠLincoln": 7772,
      "Ġhence": 7773,
      "Ġ33": 7774,
      "icular": 7775,
      "Ġdirected": 7776,
      "icy": 7777,
      "Ġcommitment": 7778,
      "Ġasc": 7779,
      "enger": 7780,
      "ĠTre": 7781,
      "Ġepis": 7782,
      "acent": 7783,
      "Ġintensity": 7784,
      "EE": 7785,
      "ĠPakistan": 7786,
      "Ġwrites": 7787,
      "Ġslave": 7788,
      "Ġpros": 7789,
      "Ġobjectives": 7790,
      "ogenic": 7791,
      "ĠNever": 7792,
      "ĠJo": 7793,
      "angered": 7794,
      "Ġsunlight": 7795,
      "Ġ1992": 7796,
      "ĠNote": 7797,
      "ĠBoston": 7798,
      "Ġbag": 7799,
      "real": 7800,
      "Ġalph": 7801,
      "ĠLead": 7802,
      "Ġoccurring": 7803,
      "ĠStar": 7804,
      "App": 7805,
      "Ġvocabulary": 7806,
      "Today": 7807,
      "ba": 7808,
      "Ġpeoples": 7809,
      "Ġextend": 7810,
      "CA": 7811,
      "Ġaged": 7812,
      "iture": 7813,
      "Ġexperiencing": 7814,
      "Per": 7815,
      "Ġabilities": 7816,
      "izabeth": 7817,
      "Ġstrain": 7818,
      "Ġchannel": 7819,
      "ĠPot": 7820,
      "ĠGeorgia": 7821,
      "Ġwheel": 7822,
      "ĠMah": 7823,
      "Ġduty": 7824,
      "allow": 7825,
      "Note": 7826,
      "Ġviewed": 7827,
      "Ġworst": 7828,
      "ansas": 7829,
      "ĠHim": 7830,
      "Ġrational": 7831,
      "Ġ1993": 7832,
      "Ġemphasis": 7833,
      "Ġrelie": 7834,
      "ĠKorea": 7835,
      "Ġprotecting": 7836,
      "Ġargue": 7837,
      "ura": 7838,
      "ĠProtection": 7839,
      "03": 7840,
      "Ġuniform": 7841,
      "Ġinhabit": 7842,
      "century": 7843,
      "Ġregardless": 7844,
      "plete": 7845,
      "Ġampl": 7846,
      "Ġdriver": 7847,
      "ĠIV": 7848,
      "sylvania": 7849,
      "Ġfunctioning": 7850,
      "def": 7851,
      "ĠFire": 7852,
      "asses": 7853,
      "ĠMinister": 7854,
      "door": 7855,
      "ourse": 7856,
      "Ġmeals": 7857,
      "brid": 7858,
      "ĠOper": 7859,
      "Ġacquired": 7860,
      "Ġ)": 7861,
      "Ġtaxes": 7862,
      "Ġauthent": 7863,
      "',": 7864,
      "Ġvan": 7865,
      "ĠAlzheimer": 7866,
      "Ġmir": 7867,
      "Ġbacterial": 7868,
      "Ġweakness": 7869,
      "Ġlaser": 7870,
      "ĠTable": 7871,
      "Ġsuscept": 7872,
      "Ġstake": 7873,
      "holders": 7874,
      "Ġadverse": 7875,
      "Ġaddressed": 7876,
      "Ġcort": 7877,
      "rection": 7878,
      "Ġritual": 7879,
      "Ġmixture": 7880,
      "ĠPrevention": 7881,
      "Ġdesert": 7882,
      "Ġforming": 7883,
      "OM": 7884,
      "esh": 7885,
      "Ġinterface": 7886,
      "ĠConservation": 7887,
      "ĠCurrent": 7888,
      "oli": 7889,
      "Ġrac": 7890,
      "Ġcontributed": 7891,
      "Ġinnovative": 7892,
      "ographical": 7893,
      "athered": 7894,
      "ĠStart": 7895,
      "Ġcalling": 7896,
      "uten": 7897,
      "quar": 7898,
      "Ġplanting": 7899,
      "ĠFind": 7900,
      "ĠAM": 7901,
      "Ġassets": 7902,
      "Ġvisited": 7903,
      "Ġoldest": 7904,
      "Ġversions": 7905,
      "ĠForce": 7906,
      "Ġathlet": 7907,
      "ercury": 7908,
      "lines": 7909,
      "Ġbless": 7910,
      "Ġvel": 7911,
      "ĠHand": 7912,
      "ĠWithout": 7913,
      "CP": 7914,
      "ĠSand": 7915,
      "forest": 7916,
      "ĠCross": 7917,
      "Ġquantity": 7918,
      "Ġhardware": 7919,
      "Ġhidden": 7920,
      "Ġadvent": 7921,
      "Ġcovering": 7922,
      "Ġsmell": 7923,
      "Ġrect": 7924,
      "Ġpla": 7925,
      "Ġprosp": 7926,
      "Ġexhaust": 7927,
      "Ġwheat": 7928,
      "Ġoverwhel": 7929,
      "Ġgirl": 7930,
      "Ġcoc": 7931,
      "Ġworkshe": 7932,
      "amples": 7933,
      "ĠUt": 7934,
      "Ġsettlement": 7935,
      "aws": 7936,
      "Ġcooling": 7937,
      "erty": 7938,
      "ĠLess": 7939,
      "Ġremed": 7940,
      "Ġalive": 7941,
      "ruit": 7942,
      "ĠCat": 7943,
      "dr": 7944,
      "98": 7945,
      "Ġcoverage": 7946,
      "ĠHor": 7947,
      "rolled": 7948,
      "Ġvitamins": 7949,
      "ĠSurvey": 7950,
      "Ġresid": 7951,
      "ĠLast": 7952,
      "Ġconserv": 7953,
      "Ġsurge": 7954,
      "Ġunion": 7955,
      "ĠScotland": 7956,
      "ĠLee": 7957,
      "02": 7958,
      "ĠPolicy": 7959,
      "ĠReading": 7960,
      "ĠCell": 7961,
      "Ġstones": 7962,
      "Ġgases": 7963,
      "Ġthereby": 7964,
      "ĠLight": 7965,
      "Ġimaging": 7966,
      "Ġprogramme": 7967,
      "Ġles": 7968,
      "People": 7969,
      "Col": 7970,
      "Ġprofit": 7971,
      "ĠCP": 7972,
      "ĠNov": 7973,
      "uro": 7974,
      "lete": 7975,
      "Ġdecay": 7976,
      "ĠCambridge": 7977,
      "Ġpermission": 7978,
      "Ġphrase": 7979,
      "Ġpand": 7980,
      "Ġplanets": 7981,
      "Ġregarded": 7982,
      "Ġvertical": 7983,
      "],": 7984,
      "Ġinsight": 7985,
      "Ġpreced": 7986,
      "erman": 7987,
      "Ġfinger": 7988,
      "angle": 7989,
      "Ġseparated": 7990,
      "Ġproductivity": 7991,
      "NS": 7992,
      "ĠHospital": 7993,
      "Ġmoderate": 7994,
      "Ġcord": 7995,
      "Ġlymph": 7996,
      "Ġtables": 7997,
      "Ġcustomer": 7998,
      "Ġproviders": 7999,
      "Ġmyst": 8000,
      "Ġeducators": 8001,
      "Ġcotton": 8002,
      "Ġantibiotics": 8003,
      "Ġmosquit": 8004,
      "Ġseat": 8005,
      "iments": 8006,
      "ĠQueen": 8007,
      "azon": 8008,
      "Ġ55": 8009,
      "Ġfalling": 8010,
      "ailable": 8011,
      "Ġprotective": 8012,
      "ĠDivision": 8013,
      "ĠBusiness": 8014,
      "ĠCho": 8015,
      "Ġconcentrations": 8016,
      "Ġdietary": 8017,
      "Ġquarter": 8018,
      "ĠChapter": 8019,
      "Ġfatty": 8020,
      "Ġtong": 8021,
      "ema": 8022,
      "06": 8023,
      "ĠPur": 8024,
      "Ġran": 8025,
      "uset": 8026,
      "Ġchemistry": 8027,
      "Ġappointed": 8028,
      "una": 8029,
      "gien": 8030,
      "Ġparameters": 8031,
      "Ġfarms": 8032,
      "HA": 8033,
      "ĠRoad": 8034,
      "hea": 8035,
      "Ġirrig": 8036,
      "ildren": 8037,
      "usalem": 8038,
      "ĠTO": 8039,
      "ĠAT": 8040,
      "Ġtribes": 8041,
      "Ġelder": 8042,
      "Ġsizes": 8043,
      "ĠLy": 8044,
      "eping": 8045,
      "Ġdemocracy": 8046,
      "ols": 8047,
      "Ġpanels": 8048,
      "ĠMichigan": 8049,
      "rat": 8050,
      "endment": 8051,
      "Ġtowns": 8052,
      "ĠBattle": 8053,
      "iop": 8054,
      "Ġinequ": 8055,
      "Ġaffecting": 8056,
      "Ġmanufacturers": 8057,
      "adel": 8058,
      "ĠTom": 8059,
      "ĠOnline": 8060,
      "Ġmathematical": 8061,
      "irth": 8062,
      "Ġcharacteristic": 8063,
      "Ġlens": 8064,
      "ĠModern": 8065,
      "usetts": 8066,
      "Ġshoot": 8067,
      "ĠUnfortunately": 8068,
      "09": 8069,
      "Ġinteractive": 8070,
      "Ġpreserve": 8071,
      "04": 8072,
      "achusetts": 8073,
      "Ġpersonality": 8074,
      "ao": 8075,
      "Ġkilling": 8076,
      "Ġsimultane": 8077,
      "Ġillegal": 8078,
      "ĠDutch": 8079,
      "Ġinterventions": 8080,
      "Ġnarrative": 8081,
      "Ġven": 8082,
      "Ġbatteries": 8083,
      "irms": 8084,
      "Ġopposition": 8085,
      "anger": 8086,
      "rical": 8087,
      "DS": 8088,
      "ĠSet": 8089,
      "Ġthermal": 8090,
      "Ġ1991": 8091,
      "Ġheritage": 8092,
      "ĠOl": 8093,
      ")|": 8094,
      "Ġscores": 8095,
      "itory": 8096,
      "ĠMath": 8097,
      "uting": 8098,
      "Ġaimed": 8099,
      "zer": 8100,
      "Ġlosses": 8101,
      "Also": 8102,
      "Ġenables": 8103,
      "Ġburied": 8104,
      "eting": 8105,
      "Ġbelieves": 8106,
      "Ġcomprom": 8107,
      "Ġcharged": 8108,
      "ĠHeart": 8109,
      "ecess": 8110,
      "Ġordinary": 8111,
      "Ġcolonial": 8112,
      "Ġsensitivity": 8113,
      "Ġwisdom": 8114,
      "ĠPennsylvania": 8115,
      "hus": 8116,
      "omer": 8117,
      "ĠWay": 8118,
      "Ġadvis": 8119,
      "Step": 8120,
      "67": 8121,
      "Ġherb": 8122,
      "Ġlip": 8123,
      "Ġavailability": 8124,
      "archy": 8125,
      "ĠArctic": 8126,
      "Ġhunting": 8127,
      "Ġhumanity": 8128,
      "mann": 8129,
      "ĠTry": 8130,
      "berry": 8131,
      "Ġattach": 8132,
      "Ġstopped": 8133,
      "Ġvaccines": 8134,
      "Ġsensors": 8135,
      "Ġdance": 8136,
      "Ġimprovements": 8137,
      "Ġreporting": 8138,
      "har": 8139,
      "apor": 8140,
      "kind": 8141,
      "ĠAssess": 8142,
      "Ġneutral": 8143,
      "ĠEdward": 8144,
      "Ġfuels": 8145,
      "asy": 8146,
      "Ġdescript": 8147,
      "Ġpolar": 8148,
      "Ear": 8149,
      "Ġconsciousness": 8150,
      "Ġcreatures": 8151,
      "Ġintroduce": 8152,
      "Ġdress": 8153,
      "Ġofficer": 8154,
      "ivest": 8155,
      "Ġexpanded": 8156,
      "Ġupdated": 8157,
      "ĠColorado": 8158,
      "Ġmothers": 8159,
      "Ġdeficiency": 8160,
      "urches": 8161,
      "ptom": 8162,
      "Ġpursu": 8163,
      "Ġplain": 8164,
      "asts": 8165,
      "http": 8166,
      "Ġtumor": 8167,
      "Ġlists": 8168,
      "etal": 8169,
      "Ġcalculated": 8170,
      "neys": 8171,
      "Ġconsumed": 8172,
      "iti": 8173,
      "HS": 8174,
      "Ġ;": 8175,
      "ĠBack": 8176,
      "Ġpointed": 8177,
      "Ġmigration": 8178,
      "Ġcyber": 8179,
      "Ġinitiative": 8180,
      "Ġurine": 8181,
      "58": 8182,
      "Ġpropag": 8183,
      "ricted": 8184,
      "Ġcure": 8185,
      "Ġwonderful": 8186,
      "Part": 8187,
      "Ġtrauma": 8188,
      "urning": 8189,
      "ĠAL": 8190,
      "Ġresearcher": 8191,
      "Ġowned": 8192,
      "Ġcas": 8193,
      "Ġsubstit": 8194,
      "ĠSpring": 8195,
      "Ġchances": 8196,
      "iner": 8197,
      "iva": 8198,
      "Ġadolesc": 8199,
      "Ġliterary": 8200,
      "ipher": 8201,
      "Ġmine": 8202,
      "Ġtechnological": 8203,
      "Ġargued": 8204,
      "Ġharder": 8205,
      "Ġlogic": 8206,
      "Ġrobot": 8207,
      "Ġorders": 8208,
      "aren": 8209,
      "Ġachievement": 8210,
      "Ġeru": 8211,
      "Ġmanaging": 8212,
      "Ġsupplements": 8213,
      "Ġcontainer": 8214,
      "ega": 8215,
      "Ġtick": 8216,
      "Ġparagraph": 8217,
      "Ġexciting": 8218,
      "pled": 8219,
      "ĠBooks": 8220,
      "advant": 8221,
      "ĠPolit": 8222,
      "Ġflying": 8223,
      "Ġdisability": 8224,
      ".).": 8225,
      "Ġcommunications": 8226,
      "Ġvariations": 8227,
      "Ġthreatened": 8228,
      "Ġemotion": 8229,
      "Ġfellow": 8230,
      "cyclopedia": 8231,
      "ptic": 8232,
      "Ġtob": 8233,
      "ulpt": 8234,
      "Ġequation": 8235,
      "Ġsteam": 8236,
      "Car": 8237,
      "Ġelsewhere": 8238,
      "alities": 8239,
      "Ġphysically": 8240,
      "ĠpH": 8241,
      "Ġgast": 8242,
      "Ġ1930": 8243,
      "Ġengaging": 8244,
      "ĠCorn": 8245,
      "bean": 8246,
      "Ġroyal": 8247,
      "ĠSS": 8248,
      "ĠSpirit": 8249,
      "Ġevening": 8250,
      "Ġanalyze": 8251,
      "ipe": 8252,
      "Ġfra": 8253,
      "Ġflexible": 8254,
      "ugg": 8255,
      "Ġgeomet": 8256,
      "BT": 8257,
      "Get": 8258,
      "ĠPalest": 8259,
      "Ġspr": 8260,
      "Ã¤": 8261,
      "Ġlinear": 8262,
      "adow": 8263,
      "Ġdimens": 8264,
      "59": 8265,
      "Ġdramatic": 8266,
      "aret": 8267,
      "Ġexped": 8268,
      ")||": 8269,
      "Ġtransmit": 8270,
      "07": 8271,
      "onal": 8272,
      "Ġabstract": 8273,
      "ĠIT": 8274,
      "Ġsocieties": 8275,
      "Ġboundaries": 8276,
      "Ġcompost": 8277,
      "Ġarguments": 8278,
      "Ġlungs": 8279,
      "ĠJerusalem": 8280,
      "ependent": 8281,
      "Ġsched": 8282,
      "rize": 8283,
      "Ġom": 8284,
      "Ġexhibit": 8285,
      "ĠImp": 8286,
      "Ġspray": 8287,
      "ĠFar": 8288,
      "ĠGulf": 8289,
      "Ġreasonable": 8290,
      "ĠHawai": 8291,
      "Ġfought": 8292,
      "Ġwaiting": 8293,
      "Ġease": 8294,
      "utation": 8295,
      "Ġemerging": 8296,
      "Ġtor": 8297,
      "uits": 8298,
      "Ġflash": 8299,
      "Ġchap": 8300,
      "Pre": 8301,
      "Ġkeeps": 8302,
      "Ġbiodiversity": 8303,
      "Ġgrains": 8304,
      "Where": 8305,
      "Ġdrivers": 8306,
      "ĠColl": 8307,
      "Ġattitude": 8308,
      "ician": 8309,
      "Ġgenome": 8310,
      "Ġexploration": 8311,
      ".'": 8312,
      "Ġdirections": 8313,
      "Com": 8314,
      "Ġboat": 8315,
      "disc": 8316,
      "Ġnutrient": 8317,
      "eor": 8318,
      "Ġantioxid": 8319,
      "ivestock": 8320,
      "Ġtemporary": 8321,
      "Ġembra": 8322,
      "uther": 8323,
      "Ġjur": 8324,
      "Ġwebsites": 8325,
      "Ġscope": 8326,
      "Ġensuring": 8327,
      "Ġguess": 8328,
      "ĠMassachusetts": 8329,
      "raq": 8330,
      "ĠDown": 8331,
      "Ġmetals": 8332,
      "ĠRh": 8333,
      "Ġfing": 8334,
      "ĠElizabeth": 8335,
      "Ġclock": 8336,
      "mod": 8337,
      "Ġentertain": 8338,
      "Ġaudio": 8339,
      "Ġcancers": 8340,
      "ĠParliament": 8341,
      "Ġwatching": 8342,
      "idal": 8343,
      "ĠModel": 8344,
      "Ġdim": 8345,
      "ĠConfed": 8346,
      "Ġfocusing": 8347,
      "Ġsentences": 8348,
      "ĠChristianity": 8349,
      "iger": 8350,
      "Ġpilot": 8351,
      "Ġperforming": 8352,
      "Ġincident": 8353,
      "About": 8354,
      "Ġcarbohyd": 8355,
      "Ġspoken": 8356,
      "63": 8357,
      "Ġfaces": 8358,
      "apes": 8359,
      "elve": 8360,
      "IF": 8361,
      "Ġsevent": 8362,
      "rix": 8363,
      "Ġdeeply": 8364,
      "oul": 8365,
      "opher": 8366,
      "ĠObs": 8367,
      "ĠAgain": 8368,
      "Ġcapabilities": 8369,
      "Ġecological": 8370,
      "Ġcardiovascular": 8371,
      "iations": 8372,
      "Ġbutton": 8373,
      "AB": 8374,
      "Ġcomputing": 8375,
      "Ġtobacco": 8376,
      "raham": 8377,
      "Ġembry": 8378,
      "Ġexpectations": 8379,
      "Ġquiet": 8380,
      "Ġcommittee": 8381,
      "you": 8382,
      "Ġfisher": 8383,
      "Ġstyles": 8384,
      "bell": 8385,
      "Ġfats": 8386,
      "uum": 8387,
      "Ġdrag": 8388,
      "Ġlowest": 8389,
      "Ġpsychology": 8390,
      "ĠHead": 8391,
      "Ġgent": 8392,
      "Ġlighting": 8393,
      "%,": 8394,
      "John": 8395,
      "Ġhouseholds": 8396,
      "Ġsummary": 8397,
      "ĠIslands": 8398,
      "ĠClick": 8399,
      "Ġuniversities": 8400,
      "Ġmarketing": 8401,
      "actions": 8402,
      "ila": 8403,
      "EF": 8404,
      "Pr": 8405,
      "ĠSystems": 8406,
      "Ġdefinitely": 8407,
      "Ġcolonies": 8408,
      "Ġsettled": 8409,
      "zo": 8410,
      "Ġcourts": 8411,
      "Ġ95": 8412,
      "Ġtempor": 8413,
      "Ġtip": 8414,
      "Ġfur": 8415,
      "ĠAnalysis": 8416,
      "Ġdegrad": 8417,
      "Ġdetermining": 8418,
      "sor": 8419,
      "ĠOrig": 8420,
      "ĠMot": 8421,
      "Ġenormous": 8422,
      "Ġethical": 8423,
      "ĠPlay": 8424,
      "ĠWal": 8425,
      "Ġengines": 8426,
      "Ġpriority": 8427,
      "Ġtelling": 8428,
      "Ġquantum": 8429,
      "jo": 8430,
      "Ġsensor": 8431,
      "Ġclassified": 8432,
      "ĠHarvard": 8433,
      "Ref": 8434,
      "gener": 8435,
      "Ġthread": 8436,
      "Ġfeels": 8437,
      "Ġcann": 8438,
      "Ġevident": 8439,
      "ĠFrancisco": 8440,
      "Ġdies": 8441,
      "Ġbehavioral": 8442,
      "aka": 8443,
      "Ġdominant": 8444,
      "Ġestablishment": 8445,
      "aints": 8446,
      "Ġecosystems": 8447,
      "Ġmyself": 8448,
      "ami": 8449,
      "Ġstreets": 8450,
      "bel": 8451,
      "Ġsaved": 8452,
      "Ġrecycling": 8453,
      "Ġremarkable": 8454,
      "Ġdism": 8455,
      "Ġempty": 8456,
      "Ġminds": 8457,
      "Ġlibr": 8458,
      "zym": 8459,
      "Ġparad": 8460,
      "May": 8461,
      "ĠDC": 8462,
      "istant": 8463,
      "fulness": 8464,
      "Ġlabour": 8465,
      "Ġassumed": 8466,
      "ĠDO": 8467,
      "----": 8468,
      "Ġextension": 8469,
      "Ġpromoting": 8470,
      "ĠIslamic": 8471,
      "Ġexecutive": 8472,
      "Ġfires": 8473,
      "unc": 8474,
      "Ġ39": 8475,
      "ĠCard": 8476,
      "through": 8477,
      "ĠJustice": 8478,
      "Ġmovie": 8479,
      "Ġinfants": 8480,
      "Co": 8481,
      "Ġperceived": 8482,
      "anted": 8483,
      "agan": 8484,
      "Ġreverse": 8485,
      "ĠLittle": 8486,
      "Ġduration": 8487,
      "Ġmouse": 8488,
      "hire": 8489,
      "ĠBu": 8490,
      "ĠMic": 8491,
      "Ġcontributions": 8492,
      "ga": 8493,
      "ailing": 8494,
      "Ġpoetry": 8495,
      "ĠÂ£": 8496,
      "Ġgrounds": 8497,
      "MA": 8498,
      "Ġsodium": 8499,
      "ĠAsk": 8500,
      "Ġequality": 8501,
      "Ġconverted": 8502,
      "Ġhall": 8503,
      "Ġcontinuing": 8504,
      "Ġremoving": 8505,
      "Ġclothes": 8506,
      "ĠPhilipp": 8507,
      "Ġcorresponding": 8508,
      "Ġpy": 8509,
      "ĠIns": 8510,
      "Ġdifferently": 8511,
      "ĠIdent": 8512,
      "Ġtens": 8513,
      "lights": 8514,
      "words": 8515,
      "Ġpreferred": 8516,
      "ĠImm": 8517,
      "was": 8518,
      "Ġastronom": 8519,
      "mented": 8520,
      "Ġ37": 8521,
      "box": 8522,
      "Ġwider": 8523,
      "Ġorb": 8524,
      "ogy": 8525,
      "Ġpassion": 8526,
      "feed": 8527,
      "bec": 8528,
      "Ġresil": 8529,
      "Ġgravity": 8530,
      "Ġstrike": 8531,
      "Ġrequirement": 8532,
      "wan": 8533,
      "agen": 8534,
      "Ġentering": 8535,
      "Ġinterior": 8536,
      "Ġsulf": 8537,
      "Ġmanager": 8538,
      "ifice": 8539,
      "olt": 8540,
      "hemistry": 8541,
      "Ġattribut": 8542,
      "Ġclients": 8543,
      "Ġnewspaper": 8544,
      "Ġlosing": 8545,
      "Ġresc": 8546,
      "ĠConference": 8547,
      "ĠContin": 8548,
      "ĠEconomic": 8549,
      "imm": 8550,
      "pass": 8551,
      "ĠWildlife": 8552,
      "Ġpainful": 8553,
      "uan": 8554,
      "ĠID": 8555,
      "ĠMur": 8556,
      "'.": 8557,
      "borne": 8558,
      "Ġ2021": 8559,
      "Ġpromise": 8560,
      "ĠBlue": 8561,
      "Ġvegetation": 8562,
      "CR": 8563,
      "asma": 8564,
      "Ġinvestigate": 8565,
      "Ġfatigue": 8566,
      "Ġcelebrated": 8567,
      "Ġconclus": 8568,
      "Ġfo": 8569,
      "ĠLin": 8570,
      "ĠEPA": 8571,
      "Ġreferences": 8572,
      "Ġappeal": 8573,
      "ĠSaint": 8574,
      "Ġheaven": 8575,
      "Ġweigh": 8576,
      "ĠDrug": 8577,
      "Cons": 8578,
      "Ġengagement": 8579,
      "Ġdense": 8580,
      "Ġ34": 8581,
      "Ġcraft": 8582,
      "Ġdistricts": 8583,
      "endar": 8584,
      "ĠBang": 8585,
      "Ġranging": 8586,
      "Ġraising": 8587,
      "mentation": 8588,
      "Ġshaped": 8589,
      "Ġ^": 8590,
      "Ġsafely": 8591,
      "Ġsad": 8592,
      "Ġprey": 8593,
      "kl": 8594,
      "ĠMach": 8595,
      "books": 8596,
      "61": 8597,
      "ati": 8598,
      "Ġlifetime": 8599,
      "ouds": 8600,
      "Ġexplicit": 8601,
      "Ġoccas": 8602,
      "mentia": 8603,
      "Ġcolony": 8604,
      "Ġdiffer": 8605,
      "Ġentit": 8606,
      "ocolate": 8607,
      "Ġapplying": 8608,
      "Ġacting": 8609,
      "Ġlock": 8610,
      "made": 8611,
      "ĠNavy": 8612,
      "Ġbare": 8613,
      "ĠTestament": 8614,
      "Ġmembrane": 8615,
      "Ġasp": 8616,
      "foot": 8617,
      "imp": 8618,
      "world": 8619,
      "Ġclassical": 8620,
      "ranean": 8621,
      "Ġtransmitted": 8622,
      "ĠOtt": 8623,
      "Under": 8624,
      "Before": 8625,
      "Ġprovince": 8626,
      "enced": 8627,
      "ĠSolar": 8628,
      "Ġmarg": 8629,
      "Ġdevast": 8630,
      "Ġsymbols": 8631,
      "Ġkingdom": 8632,
      "Ġadapted": 8633,
      "ĠFact": 8634,
      "Ġwouldn": 8635,
      "ĠCode": 8636,
      "rh": 8637,
      "Ġsustainability": 8638,
      "Ġspots": 8639,
      "Ġbeat": 8640,
      "Last": 8641,
      "Ġmature": 8642,
      "Ġassembly": 8643,
      "Ġfacilitate": 8644,
      "Ġhypothesis": 8645,
      "play": 8646,
      "Ġprobability": 8647,
      "ensed": 8648,
      "Ġaccord": 8649,
      "Ġexisted": 8650,
      "Ġconvert": 8651,
      "ĠLaboratory": 8652,
      "ĠWikipedia": 8653,
      "ĠRam": 8654,
      "Ġassert": 8655,
      "Ġprofile": 8656,
      "Ġaddiction": 8657,
      "Ġspinal": 8658,
      "ĠCirc": 8659,
      "roud": 8660,
      "ĠAR": 8661,
      "ĠCub": 8662,
      "Ġloose": 8663,
      "Sim": 8664,
      "erts": 8665,
      "Ġaccompanied": 8666,
      "Ġoxid": 8667,
      "ĠMuslims": 8668,
      "Ġtargeted": 8669,
      "ĠSunday": 8670,
      "ĠPortug": 8671,
      "Ġwearing": 8672,
      "Ġintegration": 8673,
      "ĠIndeed": 8674,
      "operative": 8675,
      "Ġhormones": 8676,
      "Ġcoron": 8677,
      "OD": 8678,
      "Ġversus": 8679,
      "orig": 8680,
      "Ġprevalence": 8681,
      "ĠPoint": 8682,
      "Ġbegun": 8683,
      "umer": 8684,
      "Ġnotion": 8685,
      "Pub": 8686,
      "Ġunn": 8687,
      "ĠAgriculture": 8688,
      "ĠAlexander": 8689,
      "ĠIraq": 8690,
      "Ø§": 8691,
      "Ġviolent": 8692,
      "CL": 8693,
      "ĠGar": 8694,
      "Ġtransc": 8695,
      "Ġ?": 8696,
      "usive": 8697,
      "Ġchromos": 8698,
      "Ġshed": 8699,
      "Ġchair": 8700,
      "Ġclub": 8701,
      "Ġcopyright": 8702,
      "ĠLos": 8703,
      "Ġgods": 8704,
      "Ġstood": 8705,
      "Ġtraits": 8706,
      "fe": 8707,
      "estions": 8708,
      "EG": 8709,
      "Ġbuff": 8710,
      "Ġtack": 8711,
      "Ġaging": 8712,
      "ĠStan": 8713,
      "à¥": 8714,
      "Ġlimitations": 8715,
      "elescope": 8716,
      "Ġwelfare": 8717,
      "OW": 8718,
      "Ġvirtually": 8719,
      "ython": 8720,
      "Ġsaving": 8721,
      "Ġintention": 8722,
      "Ġhat": 8723,
      "uscript": 8724,
      "OP": 8725,
      "raine": 8726,
      "Ġchose": 8727,
      "Ġconvey": 8728,
      "Ġmanual": 8729,
      "ĠIce": 8730,
      "Ġgrades": 8731,
      "Ġcow": 8732,
      "ologically": 8733,
      "53": 8734,
      "copy": 8735,
      "encing": 8736,
      "itting": 8737,
      "Ġorigins": 8738,
      "Ġdiscussions": 8739,
      "Ġ1920": 8740,
      "ashes": 8741,
      "Ġdil": 8742,
      "Ġtrem": 8743,
      "Ġwithdraw": 8744,
      "obile": 8745,
      "62": 8746,
      "Ġpill": 8747,
      "inois": 8748,
      "Ġcooperation": 8749,
      "eries": 8750,
      "Ġapparently": 8751,
      "Sm": 8752,
      "ĠHa": 8753,
      "Â®": 8754,
      "Ġpersonnel": 8755,
      "Ġfriendly": 8756,
      "Ġanticip": 8757,
      "Ġcomplexity": 8758,
      "Ġhaven": 8759,
      "Ġseriously": 8760,
      "Ġcollective": 8761,
      "Ġrealized": 8762,
      "Ġemerged": 8763,
      "Ġshore": 8764,
      "section": 8765,
      "Ġsculpt": 8766,
      "thew": 8767,
      "ĠCr": 8768,
      "Ġobst": 8769,
      "Ġplanted": 8770,
      "Ġjoints": 8771,
      "Ġphotographs": 8772,
      "thod": 8773,
      "reprene": 8774,
      "Ġdairy": 8775,
      "amil": 8776,
      "Ġverb": 8777,
      "ref": 8778,
      "ĠSenate": 8779,
      "Ġcub": 8780,
      "Ġgly": 8781,
      "ackson": 8782,
      "ĠHT": 8783,
      "Ġaggressive": 8784,
      "ceans": 8785,
      "52": 8786,
      "Ġalign": 8787,
      "specific": 8788,
      "!!": 8789,
      "Ġrecre": 8790,
      "Ġbeans": 8791,
      "Ġsessions": 8792,
      "Then": 8793,
      "Ġnoticed": 8794,
      "Ġactively": 8795,
      "Ġbee": 8796,
      "Ġgraduate": 8797,
      "Ġhabitats": 8798,
      "Ġconstra": 8799,
      "Ġnutritional": 8800,
      "Ġimmigrants": 8801,
      "Ġcirculation": 8802,
      "Ġpurchased": 8803,
      "Ġsolving": 8804,
      "Ġholiday": 8805,
      "Ġcul": 8806,
      "Ġexpertise": 8807,
      "Ġpeer": 8808,
      "Ġtact": 8809,
      "Ġgathered": 8810,
      "Ġliterally": 8811,
      "Ġsongs": 8812,
      "Ġacknowled": 8813,
      "unning": 8814,
      "ĠFred": 8815,
      "Each": 8816,
      "ĠFil": 8817,
      "ĠGall": 8818,
      "Ġ1989": 8819,
      "Ġdiarr": 8820,
      "fast": 8821,
      "Ġgum": 8822,
      "Ġsacred": 8823,
      "Ġbalanced": 8824,
      "'d": 8825,
      "Ġhandling": 8826,
      "Ġreadily": 8827,
      "lymp": 8828,
      "Ġsavings": 8829,
      "Ġviral": 8830,
      "ĠSecretary": 8831,
      "assion": 8832,
      "ĠPhot": 8833,
      "Ġvictory": 8834,
      "Ġpione": 8835,
      "Ġclassic": 8836,
      "Ġtone": 8837,
      "Ġfrust": 8838,
      "ĠSeveral": 8839,
      "Ne": 8840,
      "olves": 8841,
      "aware": 8842,
      "2010": 8843,
      "Ġresistant": 8844,
      "Ġchoosing": 8845,
      "Hist": 8846,
      "ĠArts": 8847,
      "Ġinvolvement": 8848,
      "ĠSection": 8849,
      "Ġpupils": 8850,
      "ĠCE": 8851,
      "ĠProcess": 8852,
      "Ġbarriers": 8853,
      "Ġscenario": 8854,
      "Ġopinions": 8855,
      "Ġdrinks": 8856,
      "Ġsuit": 8857,
      "Ġatoms": 8858,
      "Ġattitudes": 8859,
      "ĠInvest": 8860,
      "Ġmedicines": 8861,
      "Ġbleeding": 8862,
      "izers": 8863,
      "Using": 8864,
      "Ġdevelops": 8865,
      "Ġscheme": 8866,
      "Ġreaches": 8867,
      "adelph": 8868,
      "this": 8869,
      "Ġrestore": 8870,
      "Ġcough": 8871,
      "Ġjoy": 8872,
      "Ġpairs": 8873,
      "ĠBa": 8874,
      "ĠMax": 8875,
      "Ġcheap": 8876,
      "zyme": 8877,
      "Ġprivile": 8878,
      "Ġrepresentative": 8879,
      "dep": 8880,
      "Ġmeaningful": 8881,
      "Ġuncle": 8882,
      "awn": 8883,
      "Ġarmed": 8884,
      "ĠPerhaps": 8885,
      "friend": 8886,
      "claim": 8887,
      "Ġmunicip": 8888,
      "cin": 8889,
      "Ġreplacement": 8890,
      "ĠAmazon": 8891,
      "Art": 8892,
      "amps": 8893,
      "chain": 8894,
      "Ġcontents": 8895,
      "Ġcouldn": 8896,
      "Ġfunded": 8897,
      "agnetic": 8898,
      "Ġcontrolling": 8899,
      "Ġprayer": 8900,
      "Ġears": 8901,
      "ĠPage": 8902,
      "Ġreturns": 8903,
      "Ġspoke": 8904,
      "Ġvegetable": 8905,
      "Ġannually": 8906,
      "rin": 8907,
      "ocity": 8908,
      "eutic": 8909,
      "Ġspecialized": 8910,
      "ĠDictionary": 8911,
      "Ġsees": 8912,
      "Ġrestaur": 8913,
      "ico": 8914,
      "Ġwars": 8915,
      "text": 8916,
      "oves": 8917,
      "Ġforecast": 8918,
      "Ġshorter": 8919,
      "Ġcelebrate": 8920,
      "ĠAvoid": 8921,
      "oons": 8922,
      "Ġpandemic": 8923,
      "Ġ1940": 8924,
      "Ġassociate": 8925,
      "Are": 8926,
      "Ġorange": 8927,
      "Ġbreaking": 8928,
      "Ġaddresses": 8929,
      "Ġtill": 8930,
      "ĠFrid": 8931,
      "Ġdefault": 8932,
      "Ġhal": 8933,
      "Ġtongue": 8934,
      "Ġpaying": 8935,
      "Ġgif": 8936,
      "Ġoutbreak": 8937,
      "Rel": 8938,
      "ĠHindu": 8939,
      "onday": 8940,
      "Ġunlikely": 8941,
      "Ġqualities": 8942,
      "Ġcab": 8943,
      "Ġsale": 8944,
      "Ġspecified": 8945,
      "Ġprime": 8946,
      "ĠMoses": 8947,
      "ĠMid": 8948,
      "Ġjuice": 8949,
      "icts": 8950,
      "Ġprecip": 8951,
      "atus": 8952,
      "after": 8953,
      "awa": 8954,
      "neum": 8955,
      "ĠHelp": 8956,
      "ĠIncre": 8957,
      "Ġabsorb": 8958,
      "Ġspan": 8959,
      "ĠTreatment": 8960,
      "Ġpowder": 8961,
      "Just": 8962,
      "Ġpets": 8963,
      "ĠDaniel": 8964,
      "oded": 8965,
      "Ġdigestive": 8966,
      "Ġsoph": 8967,
      "ĠNob": 8968,
      "Ġprox": 8969,
      "Ġham": 8970,
      "lected": 8971,
      "Ġcrown": 8972,
      "Ġalarm": 8973,
      "Ġvaries": 8974,
      "ĠCentury": 8975,
      "Ġpenet": 8976,
      "Ġeverywhere": 8977,
      "Ġreveals": 8978,
      "Like": 8979,
      "ĠKey": 8980,
      "Ġindirect": 8981,
      "Ġdropped": 8982,
      "Ġhospitals": 8983,
      "Ġposts": 8984,
      "UL": 8985,
      "ĠKids": 8986,
      "Ġvaried": 8987,
      "Ġcurrency": 8988,
      "ĠBuilding": 8989,
      "press": 8990,
      "power": 8991,
      "Ġlivestock": 8992,
      "ĠTown": 8993,
      "ĠBiology": 8994,
      "Ġoccupied": 8995,
      "ĠBal": 8996,
      "ĠUV": 8997,
      "cho": 8998,
      "56": 8999,
      "rip": 9000,
      "Ġhappiness": 9001,
      "ĠFarm": 9002,
      "Sec": 9003,
      "Ġnom": 9004,
      "Ġscat": 9005,
      "Ġtension": 9006,
      "Ġanger": 9007,
      "Ġtab": 9008,
      "ĠDesc": 9009,
      "ĠBureau": 9010,
      "Ġbarrier": 9011,
      "swe": 9012,
      "olk": 9013,
      "Ġcouncil": 9014,
      "Ġenthus": 9015,
      "Use": 9016,
      "Ġalgorithm": 9017,
      "Ġsciences": 9018,
      "ĠConvention": 9019,
      "ĠImpro": 9020,
      "ĠSP": 9021,
      "Ġtap": 9022,
      "Ġ120": 9023,
      "ais": 9024,
      "ĠMA": 9025,
      "ĠLim": 9026,
      "Eng": 9027,
      "Ġwat": 9028,
      "Ġhygien": 9029,
      "ĠPu": 9030,
      "adelphia": 9031,
      "ĠVe": 9032,
      "havior": 9033,
      "Ġsoils": 9034,
      "Ġreflected": 9035,
      "Ġarise": 9036,
      "Ġdivine": 9037,
      "Ġstrategic": 9038,
      "Ġgardens": 9039,
      "Ġestate": 9040,
      "Ġrecording": 9041,
      "Ġbasically": 9042,
      "Ġpel": 9043,
      "Ġrefused": 9044,
      "Source": 9045,
      "Ġclay": 9046,
      "plo": 9047,
      "ĠGreece": 9048,
      "Ġcreativity": 9049,
      "Ġprescribed": 9050,
      "Ġpractition": 9051,
      "SP": 9052,
      "Ġcompetitive": 9053,
      "cut": 9054,
      "ĠDigital": 9055,
      "ĠLevel": 9056,
      "Ġoils": 9057,
      "ĠColon": 9058,
      "Ġtrace": 9059,
      "ĠTemple": 9060,
      "Ġdisplayed": 9061,
      "Despite": 9062,
      "Ġenjoyed": 9063,
      "Ġglobe": 9064,
      "esium": 9065,
      "!âĢĿ": 9066,
      "Ġintegr": 9067,
      "ĠMexican": 9068,
      "ĠCreek": 9069,
      "ĠNeed": 9070,
      "outheast": 9071,
      "assium": 9072,
      "Ġthroat": 9073,
      "Ġrepresenting": 9074,
      "ĠLater": 9075,
      "icking": 9076,
      "Ġdict": 9077,
      "mia": 9078,
      "Ġproductive": 9079,
      "Ġaccomplish": 9080,
      "Ġstrange": 9081,
      "Ġtends": 9082,
      "onents": 9083,
      "Ġprofound": 9084,
      "Ġevolutionary": 9085,
      "aternal": 9086,
      "Ã±": 9087,
      "ilst": 9088,
      "ĠMess": 9089,
      "Ġdisadvant": 9090,
      "aya": 9091,
      "ĠBeing": 9092,
      "emb": 9093,
      "Ġinfluences": 9094,
      "izz": 9095,
      "ifier": 9096,
      "rue": 9097,
      "ĠChief": 9098,
      "ĠRight": 9099,
      "Ġash": 9100,
      "Ġcoat": 9101,
      "Ġrestoration": 9102,
      "ĠVietnam": 9103,
      "reens": 9104,
      "Ġmammals": 9105,
      "ĠHistorical": 9106,
      "ĠCommons": 9107,
      "urable": 9108,
      "ĠVan": 9109,
      "ĠIndones": 9110,
      "green": 9111,
      "Ġownership": 9112,
      "Ġburden": 9113,
      "apped": 9114,
      "Ġsister": 9115,
      "ĠSmall": 9116,
      "shaped": 9117,
      "ĠIllinois": 9118,
      "also": 9119,
      "mond": 9120,
      "2012": 9121,
      "Ġillnesses": 9122,
      "Ġdraft": 9123,
      "Ġincent": 9124,
      "cule": 9125,
      "Ġpermit": 9126,
      "Ġbene": 9127,
      "ĠOlymp": 9128,
      "54": 9129,
      "ĠWhether": 9130,
      "Ġlogical": 9131,
      "ĠLi": 9132,
      "ĠCost": 9133,
      "Ġdeploy": 9134,
      "worth": 9135,
      "Ġchurches": 9136,
      "Ġcalculate": 9137,
      "ceive": 9138,
      "uity": 9139,
      "Ġanalyzed": 9140,
      "Ġtu": 9141,
      "Ġherself": 9142,
      "Ġmaxim": 9143,
      "Ġsuicide": 9144,
      "ĠTrust": 9145,
      "TH": 9146,
      "mail": 9147,
      "Ġpace": 9148,
      "erally": 9149,
      "Ġsons": 9150,
      "ĠTH": 9151,
      "ĠView": 9152,
      "sex": 9153,
      "Ġdevelopments": 9154,
      "Ġpossibilities": 9155,
      "Ġspacecraft": 9156,
      "Ġpreserved": 9157,
      "issipp": 9158,
      "irable": 9159,
      "ĠStandard": 9160,
      "ĠMove": 9161,
      "rowth": 9162,
      "Ġworkplace": 9163,
      "Ġregistered": 9164,
      "Ġconversion": 9165,
      "Ġbreaks": 9166,
      "enter": 9167,
      "Ġinsights": 9168,
      "Who": 9169,
      "Ġexploring": 9170,
      "Ġsurprise": 9171,
      "Ġdipl": 9172,
      "2011": 9173,
      "vation": 9174,
      "Ġadopt": 9175,
      "Ġ42": 9176,
      "Ġstreams": 9177,
      "ĠCapt": 9178,
      "Ùİ": 9179,
      "ĠNext": 9180,
      "Ġidentical": 9181,
      "ĠFed": 9182,
      "Ġembed": 9183,
      "Ġpaintings": 9184,
      "sembly": 9185,
      "Ġtransferred": 9186,
      "Ð°": 9187,
      "ĠEmer": 9188,
      "Ġpuzz": 9189,
      "Ġsuddenly": 9190,
      "opl": 9191,
      "Ġbuying": 9192,
      "ĠHeritage": 9193,
      "Ġinvention": 9194,
      "isd": 9195,
      "Ġglac": 9196,
      "ori": 9197,
      "Fig": 9198,
      "Ġvolunteers": 9199,
      "ocated": 9200,
      "Ġgift": 9201,
      "86": 9202,
      "Ġadvances": 9203,
      "Ġdiscipline": 9204,
      "ocket": 9205,
      "ĠRail": 9206,
      "á¹": 9207,
      "BM": 9208,
      "ĠAndrew": 9209,
      "Ġpreparing": 9210,
      "trans": 9211,
      "Ġmotivation": 9212,
      "Ġmeetings": 9213,
      "Ġho": 9214,
      "Ġaccurately": 9215,
      "Ġultimate": 9216,
[...]
